{
  "version": "1.0",
  "truncation": {
    "direction": "Right",
    "max_length": 128,
    "strategy": "LongestFirst",
    "stride": 0
  },
  "padding": {
    "strategy": "BatchLongest",
    "direction": "Right",
    "pad_to_multiple_of": null,
    "pad_id": 0,
    "pad_type_id": 0,
    "pad_token": "[PAD]"
  },
  "added_tokens": [
    {
      "id": 0,
      "content": "[PAD]",
      "single_word": false,
      "lstrip": false,
      "rstrip": false,
      "normalized": false,
      "special": true
    },
    {
      "id": 1,
      "content": "[UNK]",
      "single_word": false,
      "lstrip": false,
      "rstrip": false,
      "normalized": false,
      "special": true
    },
    {
      "id": 2,
      "content": "[CLS]",
      "single_word": false,
      "lstrip": false,
      "rstrip": false,
      "normalized": false,
      "special": true
    },
    {
      "id": 3,
      "content": "[SEP]",
      "single_word": false,
      "lstrip": false,
      "rstrip": false,
      "normalized": false,
      "special": true
    },
    {
      "id": 4,
      "content": "[MASK]",
      "single_word": false,
      "lstrip": false,
      "rstrip": false,
      "normalized": false,
      "special": true
    }
  ],
  "normalizer": {
    "type": "BertNormalizer",
    "clean_text": true,
    "handle_chinese_chars": true,
    "strip_accents": null,
    "lowercase": false
  },
  "pre_tokenizer": {
    "type": "BertPreTokenizer"
  },
  "post_processor": {
    "type": "TemplateProcessing",
    "single": [
      {
        "SpecialToken": {
          "id": "[CLS]",
          "type_id": 0
        }
      },
      {
        "Sequence": {
          "id": "A",
          "type_id": 0
        }
      },
      {
        "SpecialToken": {
          "id": "[SEP]",
          "type_id": 0
        }
      }
    ],
    "pair": [
      {
        "SpecialToken": {
          "id": "[CLS]",
          "type_id": 0
        }
      },
      {
        "Sequence": {
          "id": "A",
          "type_id": 0
        }
      },
      {
        "SpecialToken": {
          "id": "[SEP]",
          "type_id": 0
        }
      },
      {
        "Sequence": {
          "id": "B",
          "type_id": 1
        }
      },
      {
        "SpecialToken": {
          "id": "[SEP]",
          "type_id": 1
        }
      }
    ],
    "special_tokens": {
      "[CLS]": {
        "id": "[CLS]",
        "ids": [
          2
        ],
        "tokens": [
          "[CLS]"
        ]
      },
      "[SEP]": {
        "id": "[SEP]",
        "ids": [
          3
        ],
        "tokens": [
          "[SEP]"
        ]
      }
    }
  },
  "decoder": {
    "type": "WordPiece",
    "prefix": "##",
    "cleanup": true
  },
  "model": {
    "type": "WordPiece",
    "unk_token": "[UNK]",
    "continuing_subword_prefix": "##",
    "max_input_chars_per_word": 100,
    "vocab": {
      "[PAD]": 0,
      "[UNK]": 1,
      "[CLS]": 2,
      "[SEP]": 3,
      "[MASK]": 4,
      "!": 5,
      "\"": 6,
      "#": 7,
      "$": 8,
      "%": 9,
      "&": 10,
      "'": 11,
      "(": 12,
      ")": 13,
      "*": 14,
      "+": 15,
      ",": 16,
      "-": 17,
      ".": 18,
      "/": 19,
      "0": 20,
      "1": 21,
      "2": 22,
      "3": 23,
      "4": 24,
      "5": 25,
      "6": 26,
      "7": 27,
      "8": 28,
      "9": 29,
      ":": 30,
      ";": 31,
      "<": 32,
      "=": 33,
      ">": 34,
      "?": 35,
      "@": 36,
      "A": 37,
      "B": 38,
      "C": 39,
      "D": 40,
      "E": 41,
      "F": 42,
      "G": 43,
      "H": 44,
      "I": 45,
      "J": 46,
      "K": 47,
      "L": 48,
      "M": 49,
      "N": 50,
      "O": 51,
      "P": 52,
      "Q": 53,
      "R": 54,
      "S": 55,
      "T": 56,
      "U": 57,
      "V": 58,
      "W": 59,
      "X": 60,
      "Y": 61,
      "Z": 62,
      "[": 63,
      "\\": 64,
      "]": 65,
      "^": 66,
      "_": 67,
      "`": 68,
      "a": 69,
      "b": 70,
      "c": 71,
      "d": 72,
      "e": 73,
      "f": 74,
      "g": 75,
      "h": 76,
      "i": 77,
      "j": 78,
      "k": 79,
      "l": 80,
      "m": 81,
      "n": 82,
      "o": 83,
      "p": 84,
      "q": 85,
      "r": 86,
      "s": 87,
      "t": 88,
      "u": 89,
      "v": 90,
      "w": 91,
      "x": 92,
      "y": 93,
      "z": 94,
      "{": 95,
      "|": 96,
      "}": 97,
      "£": 98,
      "§": 99,
      "©": 100,
      "«": 101,
      "¬": 102,
      "°": 103,
      "±": 104,
      "²": 105,
      "¶": 106,
      "·": 107,
      "»": 108,
      "Á": 109,
      "Â": 110,
      "É": 111,
      "Î": 112,
      "×": 113,
      "à": 114,
      "á": 115,
      "â": 116,
      "ã": 117,
      "ä": 118,
      "å": 119,
      "ç": 120,
      "è": 121,
      "é": 122,
      "ë": 123,
      "í": 124,
      "î": 125,
      "ñ": 126,
      "ó": 127,
      "ô": 128,
      "ö": 129,
      "ú": 130,
      "ü": 131,
      "ā": 132,
      "Ă": 133,
      "ă": 134,
      "ć": 135,
      "č": 136,
      "ĭ": 137,
      "ı": 138,
      "ł": 139,
      "Ń": 140,
      "ń": 141,
      "ő": 142,
      "š": 143,
      "ž": 144,
      "ǎ": 145,
      "ȃ": 146,
      "ȋ": 147,
      "Ș": 148,
      "ș": 149,
      "Ț": 150,
      "ț": 151,
      "̆": 152,
      "̦": 153,
      "α": 154,
      "ε": 155,
      "η": 156,
      "ι": 157,
      "κ": 158,
      "λ": 159,
      "μ": 160,
      "ν": 161,
      "ο": 162,
      "π": 163,
      "ρ": 164,
      "ς": 165,
      "σ": 166,
      "τ": 167,
      "а": 168,
      "в": 169,
      "д": 170,
      "е": 171,
      "и": 172,
      "к": 173,
      "л": 174,
      "м": 175,
      "н": 176,
      "о": 177,
      "п": 178,
      "р": 179,
      "с": 180,
      "т": 181,
      "у": 182,
      "ӑ": 183,
      "‘": 184,
      "’": 185,
      "‚": 186,
      "“": 187,
      "”": 188,
      "„": 189,
      "†": 190,
      "…": 191,
      "›": 192,
      "€": 193,
      "←": 194,
      "→": 195,
      "≥": 196,
      "─": 197,
      "│": 198,
      "┼": 199,
      "●": 200,
      "♦": 201,
      "♪": 202,
      "😀": 203,
      "🙂": 204,
      "##r": 205,
      "##e": 206,
      "##a": 207,
      "##b": 208,
      "##o": 209,
      "##g": 210,
      "##t": 211,
      "##u": 212,
      "##l": 213,
      "##s": 214,
      "##i": 215,
      "##n": 216,
      "##ă": 217,
      "##c": 218,
      "##k": 219,
      "##m": 220,
      "##á": 221,
      "##p": 222,
      "##d": 223,
      "##B": 224,
      "##C": 225,
      "##A": 226,
      "##O": 227,
      "##R": 228,
      "##Y": 229,
      "##9": 230,
      "##z": 231,
      "##v": 232,
      "##P": 233,
      "##S": 234,
      "##T": 235,
      "##Ț": 236,
      "##I": 237,
      "##E": 238,
      "##h": 239,
      "##y": 240,
      "##5": 241,
      "##2": 242,
      "##4": 243,
      "##ț": 244,
      "##f": 245,
      "##ș": 246,
      "##î": 247,
      "##w": 248,
      "##j": 249,
      "##ë": 250,
      "##K": 251,
      "##G": 252,
      "##í": 253,
      "##ρ": 254,
      "##ο": 255,
      "##ς": 256,
      "##0": 257,
      "##x": 258,
      "##8": 259,
      "##│": 260,
      "##D": 261,
      "##J": 262,
      "##V": 263,
      "##7": 264,
      "##6": 265,
      "##1": 266,
      "##ǎ": 267,
      "##Â": 268,
      "##U": 269,
      "##M": 270,
      "##N": 271,
      "##L": 272,
      "##â": 273,
      "##Ș": 274,
      "##ã": 275,
      "##3": 276,
      "##q": 277,
      "##W": 278,
      "##é": 279,
      "##X": 280,
      "##Î": 281,
      "##ö": 282,
      "##H": 283,
      "##Ă": 284,
      "##ó": 285,
      "##Z": 286,
      "##ı": 287,
      "##š": 288,
      "##ć": 289,
      "##и": 290,
      "##п": 291,
      "##о": 292,
      "##р": 293,
      "##д": 294,
      "##м": 295,
      "##н": 296,
      "##с": 297,
      "##т": 298,
      "##а": 299,
      "##в": 300,
      "##̦": 301,
      "##ā": 302,
      "##τ": 303,
      "##ι": 304,
      "##λ": 305,
      "##ν": 306,
      "##η": 307,
      "##F": 308,
      "##ä": 309,
      "##à": 310,
      "##¬": 311,
      "##ü": 312,
      "##ç": 313,
      "##ӑ": 314,
      "##к": 315,
      "##ε": 316,
      "##ž": 317,
      "##σ": 318,
      "##е": 319,
      "##É": 320,
      "##è": 321,
      "##ĭ": 322,
      "##å": 323,
      "##č": 324,
      "##π": 325,
      "##Q": 326,
      "##α": 327,
      "##Ń": 328,
      "##ń": 329,
      "##μ": 330,
      "##×": 331,
      "##→": 332,
      "##κ": 333,
      "##Á": 334,
      "##ł": 335,
      "##ȃ": 336,
      "##ú": 337,
      "##у": 338,
      "##°": 339,
      "##л": 340,
      "##ô": 341,
      "##©": 342,
      "##̆": 343,
      "##ñ": 344,
      "##ő": 345,
      "##─": 346,
      "##┼": 347,
      "##±": 348,
      "##€": 349,
      "##£": 350,
      "##ȋ": 351,
      "##♪": 352,
      "##🙂": 353,
      "##²": 354,
      "##●": 355,
      "##😀": 356,
      "##♦": 357,
      "##←": 358,
      "##≥": 359,
      "##re": 360,
      "##te": 361,
      "##ri": 362,
      "de": 363,
      "##ul": 364,
      "##in": 365,
      "##nt": 366,
      "##le": 367,
      "##at": 368,
      "##or": 369,
      "##ți": 370,
      "##are": 371,
      "în": 372,
      "##st": 373,
      "##ic": 374,
      "##ar": 375,
      "pe": 376,
      "și": 377,
      "##an": 378,
      "##it": 379,
      "##ce": 380,
      "##on": 381,
      "##un": 382,
      "##al": 383,
      "##ie": 384,
      "##ru": 385,
      "##me": 386,
      "##ra": 387,
      "##ui": 388,
      "##ate": 389,
      "cu": 390,
      "##ro": 391,
      "la": 392,
      "să": 393,
      "##de": 394,
      "##ti": 395,
      "un": 396,
      "##ste": 397,
      "ce": 398,
      "##il": 399,
      "##er": 400,
      "din": 401,
      "in": 402,
      "re": 403,
      "##ân": 404,
      "se": 405,
      "##cu": 406,
      "##ol": 407,
      "##om": 408,
      "##ntru": 409,
      "ma": 410,
      "nu": 411,
      "##ului": 412,
      "##ea": 413,
      "care": 414,
      "că": 415,
      "ca": 416,
      "##ci": 417,
      "##en": 418,
      "pentru": 419,
      "##ați": 420,
      "su": 421,
      "##im": 422,
      "##ii": 423,
      "##ia": 424,
      "##ut": 425,
      "##se": 426,
      "##că": 427,
      "##ine": 428,
      "##uri": 429,
      "mai": 430,
      "##ct": 431,
      "pro": 432,
      "##lor": 433,
      "##pe": 434,
      "##ori": 435,
      "##ră": 436,
      "pri": 437,
      "al": 438,
      "##rea": 439,
      "##ot": 440,
      "ace": 441,
      "con": 442,
      "este": 443,
      "##area": 444,
      "##is": 445,
      "sa": 446,
      "##iz": 447,
      "co": 448,
      "##ată": 449,
      "##ve": 450,
      "pre": 451,
      "##tă": 452,
      "##si": 453,
      "##mp": 454,
      "fo": 455,
      "au": 456,
      "fa": 457,
      "##ici": 458,
      "##fe": 459,
      "##ei": 460,
      "##oc": 461,
      "##ur": 462,
      "fi": 463,
      "##ch": 464,
      "an": 465,
      "##du": 466,
      "ne": 467,
      "##ile": 468,
      "po": 469,
      "st": 470,
      "##ma": 471,
      "##men": 472,
      "înt": 473,
      "am": 474,
      "do": 475,
      "##ând": 476,
      "ex": 477,
      "##la": 478,
      "##ale": 479,
      "##di": 480,
      "ar": 481,
      "##ză": 482,
      "sp": 483,
      "##sta": 484,
      "si": 485,
      "te": 486,
      "fost": 487,
      "me": 488,
      "##ze": 489,
      "##sc": 490,
      "##va": 491,
      "##um": 492,
      "##oa": 493,
      "pu": 494,
      "##ge": 495,
      "ap": 496,
      "##ță": 497,
      "tre": 498,
      "##ta": 499,
      "##ment": 500,
      "##rii": 501,
      "ac": 502,
      "##ște": 503,
      "##sp": 504,
      "20": 505,
      "com": 506,
      "##ții": 507,
      "##ică": 508,
      "sau": 509,
      "##ist": 510,
      "##up": 511,
      "##arte": 512,
      "##une": 513,
      "##ști": 514,
      "va": 515,
      "##să": 516,
      "le": 517,
      "##itate": 518,
      "mo": 519,
      "##zi": 520,
      "##ice": 521,
      "##bil": 522,
      "mul": 523,
      "##oi": 524,
      "##lu": 525,
      "sunt": 526,
      "##ită": 527,
      "##ter": 528,
      "##ța": 529,
      "##rie": 530,
      "lu": 531,
      "##os": 532,
      "##ăt": 533,
      "##ilor": 534,
      "##ca": 535,
      "##ală": 536,
      "##ăr": 537,
      "În": 538,
      "##ne": 539,
      "##oare": 540,
      "##țe": 541,
      "##pt": 542,
      "##și": 543,
      "##sa": 544,
      "De": 545,
      "##iv": 546,
      "##orm": 547,
      "##da": 548,
      "##bu": 549,
      "##tre": 550,
      "##ite": 551,
      "prin": 552,
      "##ât": 553,
      "per": 554,
      "##og": 555,
      "cre": 556,
      "##cți": 557,
      "##fic": 558,
      "ale": 559,
      "##ran": 560,
      "ve": 561,
      "##mb": 562,
      "##lic": 563,
      "##ata": 564,
      "##us": 565,
      "##el": 566,
      "av": 567,
      "##ip": 568,
      "ur": 569,
      "to": 570,
      "##acă": 571,
      "at": 572,
      "##imp": 573,
      "##ort": 574,
      "##ind": 575,
      "acest": 576,
      "cont": 577,
      "lui": 578,
      "##ară": 579,
      "##ara": 580,
      "vor": 581,
      "##tele": 582,
      "##rin": 583,
      "##tea": 584,
      "Nu": 585,
      "##cut": 586,
      "201": 587,
      "##ane": 588,
      "mă": 589,
      "fie": 590,
      "no": 591,
      "dar": 592,
      "##omân": 593,
      "##mul": 594,
      "##tiv": 595,
      "##ari": 596,
      "##dă": 597,
      "fă": 598,
      "ai": 599,
      "##hi": 600,
      "##mă": 601,
      "##ire": 602,
      "ră": 603,
      "imp": 604,
      "##ura": 605,
      "##ig": 606,
      "##stă": 607,
      "##za": 608,
      "##rat": 609,
      "Pe": 610,
      "##rul": 611,
      "pl": 612,
      "mi": 613,
      "##rile": 614,
      "##ap": 615,
      "##cum": 616,
      "loc": 617,
      "ob": 618,
      "##upă": 619,
      "##orul": 620,
      "##din": 621,
      "##rit": 622,
      "##ven": 623,
      "##iei": 624,
      "##urile": 625,
      "##buie": 626,
      "ad": 627,
      "af": 628,
      "luc": 629,
      "##co": 630,
      "timp": 631,
      "tot": 632,
      "##ție": 633,
      "comp": 634,
      "Un": 635,
      "In": 636,
      "##he": 637,
      "##gă": 638,
      "##min": 639,
      "##mn": 640,
      "Re": 641,
      "par": 642,
      "##mi": 643,
      "ori": 644,
      "##form": 645,
      "##so": 646,
      "poate": 647,
      "##ba": 648,
      "înce": 649,
      "##ură": 650,
      "##uro": 651,
      "##ing": 652,
      "##ția": 653,
      "dec": 654,
      "aj": 655,
      "##aliz": 656,
      "##dic": 657,
      "##țin": 658,
      "cum": 659,
      "acea": 660,
      "##sul": 661,
      "vă": 662,
      "##od": 663,
      "##ga": 664,
      "Se": 665,
      "între": 666,
      "##itatea": 667,
      "pa": 668,
      "dis": 669,
      "pot": 670,
      "##ib": 671,
      "mult": 672,
      "##spre": 673,
      "iar": 674,
      "##itu": 675,
      "##âr": 676,
      "fe": 677,
      "##ub": 678,
      "Con": 679,
      "##ună": 680,
      "##tate": 681,
      "când": 682,
      "##ten": 683,
      "cel": 684,
      "face": 685,
      "##and": 686,
      "or": 687,
      "##ână": 688,
      "##gi": 689,
      "pă": 690,
      "cele": 691,
      "ul": 692,
      "dacă": 693,
      "##uni": 694,
      "după": 695,
      "priv": 696,
      "##ează": 697,
      "##ina": 698,
      "##ini": 699,
      "##uă": 700,
      "##onal": 701,
      "spe": 702,
      "##cul": 703,
      "Ma": 704,
      "##șa": 705,
      "##00": 706,
      "##stru": 707,
      "19": 708,
      "##sti": 709,
      "trebuie": 710,
      "are": 711,
      "ani": 712,
      "parte": 713,
      "##ov": 714,
      "##nta": 715,
      "inter": 716,
      "##pre": 717,
      "##erv": 718,
      "##ua": 719,
      "despre": 720,
      "##ene": 721,
      "el": 722,
      "sub": 723,
      "câ": 724,
      "##ină": 725,
      "nici": 726,
      "împ": 727,
      "##șe": 728,
      "aceste": 729,
      "Român": 730,
      "##ații": 731,
      "##ati": 732,
      "##lă": 733,
      "bine": 734,
      "##ir": 735,
      "##spe": 736,
      "într": 737,
      "##amen": 738,
      "##ide": 739,
      "##op": 740,
      "min": 741,
      "asta": 742,
      "##scă": 743,
      "int": 744,
      "era": 745,
      "##ces": 746,
      "cop": 747,
      "sc": 748,
      "##care": 749,
      "ju": 750,
      "dintre": 751,
      "##atul": 752,
      "Ce": 753,
      "doar": 754,
      "##ala": 755,
      "##ânt": 756,
      "##ord": 757,
      "##olo": 758,
      "produ": 759,
      "##țele": 760,
      "foarte": 761,
      "aut": 762,
      "##ili": 763,
      "##orii": 764,
      "toate": 765,
      "leg": 766,
      "##vă": 767,
      "tran": 768,
      "La": 769,
      "##rilor": 770,
      "dep": 771,
      "##mele": 772,
      "inte": 773,
      "ele": 774,
      "Ace": 775,
      "##ocu": 776,
      "##inte": 777,
      "mare": 778,
      "ni": 779,
      "##til": 780,
      "des": 781,
      "Ca": 782,
      "##ație": 783,
      "##ația": 784,
      "di": 785,
      "##gan": 786,
      "##be": 787,
      "Am": 788,
      "unui": 789,
      "##zul": 790,
      "prop": 791,
      "##cte": 792,
      "ta": 793,
      "apro": 794,
      "##ier": 795,
      "##tic": 796,
      "întâ": 797,
      "ba": 798,
      "ști": 799,
      "noi": 800,
      "##mea": 801,
      "sup": 802,
      "##ntă": 803,
      "##fel": 804,
      "pub": 805,
      "speci": 806,
      "##unea": 807,
      "lucru": 808,
      "##ver": 809,
      "ei": 810,
      "##cat": 811,
      "##ana": 812,
      "vede": 813,
      "##unci": 814,
      "##cur": 815,
      "Și": 816,
      "##na": 817,
      "##oast": 818,
      "##pa": 819,
      "##țion": 820,
      "pol": 821,
      "##hiar": 822,
      "##ități": 823,
      "200": 824,
      "multe": 825,
      "exp": 826,
      "fun": 827,
      "##ani": 828,
      "cal": 829,
      "##bă": 830,
      "vre": 831,
      "##mentul": 832,
      "##li": 833,
      "până": 834,
      "Pro": 835,
      "##duce": 836,
      "bu": 837,
      "##ria": 838,
      "##ni": 839,
      "zi": 840,
      "##tul": 841,
      "##chi": 842,
      "##fer": 843,
      "##zent": 844,
      "tra": 845,
      "##gra": 846,
      "##ute": 847,
      "##ană": 848,
      "Com": 849,
      "##con": 850,
      "Pentru": 851,
      "##che": 852,
      "așa": 853,
      "##rept": 854,
      "avea": 855,
      "lor": 856,
      "##ica": 857,
      "reg": 858,
      "##olog": 859,
      "##lo": 860,
      "##vi": 861,
      "##vol": 862,
      "unei": 863,
      "peri": 864,
      "##am": 865,
      "##urilor": 866,
      "op": 867,
      "această": 868,
      "##ren": 869,
      "##do": 870,
      "##vo": 871,
      "so": 872,
      "fin": 873,
      "An": 874,
      "##au": 875,
      "disp": 876,
      "putea": 877,
      "perso": 878,
      "aici": 879,
      "##ali": 880,
      "##ona": 881,
      "##peri": 882,
      "unde": 883,
      "oamen": 884,
      "Ar": 885,
      "cea": 886,
      "##stfel": 887,
      "Te": 888,
      "acum": 889,
      "##pul": 890,
      "##ita": 891,
      "##atori": 892,
      "Euro": 893,
      "du": 894,
      "##scu": 895,
      "##iți": 896,
      "##one": 897,
      "fără": 898,
      "organ": 899,
      "cei": 900,
      "##rum": 901,
      "##ține": 902,
      "urm": 903,
      "chiar": 904,
      "două": 905,
      "pute": 906,
      "dez": 907,
      "ora": 908,
      "##iect": 909,
      "ade": 910,
      "##rim": 911,
      "##iile": 912,
      "as": 913,
      "ab": 914,
      "##bui": 915,
      "mod": 916,
      "sol": 917,
      "##cti": 918,
      "către": 919,
      "##clu": 920,
      "drept": 921,
      "ci": 922,
      "##sig": 923,
      "##mente": 924,
      "10": 925,
      "tine": 926,
      "comun": 927,
      "##ativ": 928,
      "român": 929,
      "##ien": 930,
      "vi": 931,
      "sim": 932,
      "##fect": 933,
      "##ctiv": 934,
      "##art": 935,
      "gă": 936,
      "rec": 937,
      "Dacă": 938,
      "util": 939,
      "##ric": 940,
      "România": 941,
      "Bu": 942,
      "Cu": 943,
      "St": 944,
      "##ers": 945,
      "Co": 946,
      "Dar": 947,
      "ajun": 948,
      "##put": 949,
      "eu": 950,
      "Su": 951,
      "făcut": 952,
      "##ante": 953,
      "pla": 954,
      "##lar": 955,
      "cad": 956,
      "cât": 957,
      "privind": 958,
      "cul": 959,
      "Po": 960,
      "fapt": 961,
      "ajut": 962,
      "activ": 963,
      "cun": 964,
      "sta": 965,
      "via": 966,
      "##rate": 967,
      "##ble": 968,
      "##istă": 969,
      "##res": 970,
      "##feri": 971,
      "##alul": 972,
      "ceva": 973,
      "##ațion": 974,
      "##ora": 975,
      "##vel": 976,
      "fiind": 977,
      "##căt": 978,
      "##șt": 979,
      "ceea": 980,
      "mun": 981,
      "##veni": 982,
      "alt": 983,
      "Dum": 984,
      "##ator": 985,
      "##una": 986,
      "##mai": 987,
      "atunci": 988,
      "ase": 989,
      "încă": 990,
      "##dent": 991,
      "pun": 992,
      "ra": 993,
      "##chim": 994,
      "utiliz": 995,
      "##id": 996,
      "##meni": 997,
      "##zit": 998,
      "##raf": 999,
      "##nă": 1000,
      "noast": 1001,
      "Ne": 1002,
      "decât": 1003,
      "da": 1004,
      "##cție": 1005,
      "fel": 1006,
      "##ței": 1007,
      "##zut": 1008,
      "##bile": 1009,
      "ven": 1010,
      "avut": 1011,
      "form": 1012,
      "ter": 1013,
      "##je": 1014,
      "Me": 1015,
      "##ote": 1016,
      "peste": 1017,
      "înc": 1018,
      "##vit": 1019,
      "zile": 1020,
      "alte": 1021,
      "num": 1022,
      "serv": 1023,
      "trebui": 1024,
      "nevo": 1025,
      "##olul": 1026,
      "gre": 1027,
      "viz": 1028,
      "##cip": 1029,
      "inform": 1030,
      "Al": 1031,
      "prim": 1032,
      "##stul": 1033,
      "##rij": 1034,
      "stat": 1035,
      "##mbrie": 1036,
      "##tăți": 1037,
      "##arul": 1038,
      "cur": 1039,
      "euro": 1040,
      "ro": 1041,
      "##omn": 1042,
      "astfel": 1043,
      "fiecare": 1044,
      "organiz": 1045,
      "for": 1046,
      "inst": 1047,
      "##șit": 1048,
      "##icip": 1049,
      "spune": 1050,
      "ave": 1051,
      "repre": 1052,
      "cer": 1053,
      "pers": 1054,
      "##neze": 1055,
      "##ității": 1056,
      "îi": 1057,
      "Pre": 1058,
      "gen": 1059,
      "##ract": 1060,
      "perioa": 1061,
      "mine": 1062,
      "deci": 1063,
      "schim": 1064,
      "spus": 1065,
      "trans": 1066,
      "nr": 1067,
      "##hn": 1068,
      "fac": 1069,
      "##uz": 1070,
      "atât": 1071,
      "##mat": 1072,
      "##ule": 1073,
      "##gu": 1074,
      "##unte": 1075,
      "##den": 1076,
      "puțin": 1077,
      "##ării": 1078,
      "Le": 1079,
      "Este": 1080,
      "public": 1081,
      "ți": 1082,
      "Da": 1083,
      "##ției": 1084,
      "anul": 1085,
      "##ania": 1086,
      "sus": 1087,
      "lim": 1088,
      "cons": 1089,
      "bun": 1090,
      "##spun": 1091,
      "##mis": 1092,
      "##menea": 1093,
      "##ace": 1094,
      "en": 1095,
      "cadrul": 1096,
      "##anță": 1097,
      "jude": 1098,
      "polit": 1099,
      "##orta": 1100,
      "câte": 1101,
      "respe": 1102,
      "##ja": 1103,
      "##tat": 1104,
      "își": 1105,
      "##mului": 1106,
      "val": 1107,
      "##gen": 1108,
      "##în": 1109,
      "îl": 1110,
      "##ctor": 1111,
      "##cea": 1112,
      "proble": 1113,
      "##gin": 1114,
      "prezent": 1115,
      "sing": 1116,
      "##pte": 1117,
      "##sibil": 1118,
      "##ntre": 1119,
      "contin": 1120,
      "Dumneze": 1121,
      "ea": 1122,
      "dire": 1123,
      "siste": 1124,
      "##mân": 1125,
      "##der": 1126,
      "##ației": 1127,
      "ch": 1128,
      "##upra": 1129,
      "cap": 1130,
      "asemenea": 1131,
      "##ptă": 1132,
      "##dea": 1133,
      "##ședin": 1134,
      "inf": 1135,
      "##as": 1136,
      "sf": 1137,
      "Mi": 1138,
      "unor": 1139,
      "persoane": 1140,
      "memb": 1141,
      "18": 1142,
      "mea": 1143,
      "##ion": 1144,
      "##teri": 1145,
      "pie": 1146,
      "##mei": 1147,
      "dist": 1148,
      "nivel": 1149,
      "precum": 1150,
      "pat": 1151,
      "##dit": 1152,
      "##lig": 1153,
      "##zin": 1154,
      "##lat": 1155,
      "##lin": 1156,
      "##rei": 1157,
      "##mo": 1158,
      "##mil": 1159,
      "ev": 1160,
      "Sp": 1161,
      "##ron": 1162,
      "fil": 1163,
      "unul": 1164,
      "ulti": 1165,
      "##urn": 1166,
      "##ud": 1167,
      "bi": 1168,
      "##ntr": 1169,
      "ech": 1170,
      "##țiile": 1171,
      "medic": 1172,
      "##orn": 1173,
      "##tatea": 1174,
      "##oane": 1175,
      "îna": 1176,
      "tip": 1177,
      "##tern": 1178,
      "situ": 1179,
      "tă": 1180,
      "gra": 1181,
      "exe": 1182,
      "Ap": 1183,
      "realiz": 1184,
      "întâl": 1185,
      "##unii": 1186,
      "orice": 1187,
      "rap": 1188,
      "conf": 1189,
      "cine": 1190,
      "scri": 1191,
      "15": 1192,
      "##otri": 1193,
      "##uver": 1194,
      "Dumnezeu": 1195,
      "##dul": 1196,
      "##use": 1197,
      "##gul": 1198,
      "însă": 1199,
      "neces": 1200,
      "nevoie": 1201,
      "##ațional": 1202,
      "##col": 1203,
      "12": 1204,
      "##itor": 1205,
      "trei": 1206,
      "##iber": 1207,
      "men": 1208,
      "##iere": 1209,
      "##rut": 1210,
      "mar": 1211,
      "##ha": 1212,
      "copii": 1213,
      "##cure": 1214,
      "##ore": 1215,
      "inclu": 1216,
      "##ților": 1217,
      "voi": 1218,
      "##cția": 1219,
      "of": 1220,
      "El": 1221,
      "Să": 1222,
      "început": 1223,
      "aplic": 1224,
      "##conom": 1225,
      "bă": 1226,
      "ie": 1227,
      "cazul": 1228,
      "##ăm": 1229,
      "comple": 1230,
      "celor": 1231,
      "locu": 1232,
      "caz": 1233,
      "##vin": 1234,
      "##loc": 1235,
      "dat": 1236,
      "asig": 1237,
      "apă": 1238,
      "aceasta": 1239,
      "##sea": 1240,
      "adev": 1241,
      "##oase": 1242,
      "declar": 1243,
      "##ole": 1244,
      "na": 1245,
      "##ări": 1246,
      "semn": 1247,
      "vrea": 1248,
      "Ex": 1249,
      "sig": 1250,
      "##ure": 1251,
      "##minist": 1252,
      "##rează": 1253,
      "meu": 1254,
      "##anța": 1255,
      "dezvol": 1256,
      "plă": 1257,
      "față": 1258,
      "Pri": 1259,
      "##mer": 1260,
      "##ozi": 1261,
      "##ans": 1262,
      "prote": 1263,
      "##erg": 1264,
      "timpul": 1265,
      "spre": 1266,
      "artic": 1267,
      "ple": 1268,
      "li": 1269,
      "ru": 1270,
      "nou": 1271,
      "progra": 1272,
      "asupra": 1273,
      "profe": 1274,
      "proce": 1275,
      "urmă": 1276,
      "##lui": 1277,
      "##sele": 1278,
      "Fe": 1279,
      "##stea": 1280,
      "înțele": 1281,
      "proiect": 1282,
      "Par": 1283,
      "măs": 1284,
      "part": 1285,
      "consi": 1286,
      "##cre": 1287,
      "##lul": 1288,
      "sal": 1289,
      "prea": 1290,
      "Cre": 1291,
      "##atele": 1292,
      "mili": 1293,
      "##rag": 1294,
      "##odată": 1295,
      "11": 1296,
      "cau": 1297,
      "##fă": 1298,
      "##cep": 1299,
      "##cen": 1300,
      "aceea": 1301,
      "cl": 1302,
      "##act": 1303,
      "prima": 1304,
      "##man": 1305,
      "##bat": 1306,
      "famil": 1307,
      "##prin": 1308,
      "##dep": 1309,
      "##țul": 1310,
      "##line": 1311,
      "##ele": 1312,
      "Sex": 1313,
      "autori": 1314,
      "##ătate": 1315,
      "numai": 1316,
      "##stori": 1317,
      "##bi": 1318,
      "acord": 1319,
      "##ațiile": 1320,
      "##icii": 1321,
      "desc": 1322,
      "##rist": 1323,
      "Ch": 1324,
      "fol": 1325,
      "Din": 1326,
      "##ient": 1327,
      "Bucure": 1328,
      "oameni": 1329,
      "acesta": 1330,
      "tele": 1331,
      "Pa": 1332,
      "cla": 1333,
      "acolo": 1334,
      "##oni": 1335,
      "ga": 1336,
      "##uvern": 1337,
      "întâmp": 1338,
      "##ume": 1339,
      "##ivers": 1340,
      "condi": 1341,
      "##ard": 1342,
      "##bor": 1343,
      "iub": 1344,
      "##mite": 1345,
      "sco": 1346,
      "venit": 1347,
      "act": 1348,
      "##ond": 1349,
      "##rân": 1350,
      "lun": 1351,
      "ant": 1352,
      "mate": 1353,
      "rez": 1354,
      "##ărul": 1355,
      "mari": 1356,
      "sen": 1357,
      "tu": 1358,
      "col": 1359,
      "##tare": 1360,
      "##ual": 1361,
      "##ograf": 1362,
      "met": 1363,
      "publ": 1364,
      "##ocie": 1365,
      "princip": 1366,
      "om": 1367,
      "##imic": 1368,
      "##ape": 1369,
      "##cțion": 1370,
      "data": 1371,
      "##ească": 1372,
      "soci": 1373,
      "Cons": 1374,
      "special": 1375,
      "##irea": 1376,
      "2018": 1377,
      "există": 1378,
      "constru": 1379,
      "econom": 1380,
      "pier": 1381,
      "una": 1382,
      "##bilă": 1383,
      "frum": 1384,
      "partea": 1385,
      "##siv": 1386,
      "core": 1387,
      "fot": 1388,
      "30": 1389,
      "folo": 1390,
      "##ținut": 1391,
      "##fică": 1392,
      "##cin": 1393,
      "pare": 1394,
      "acestui": 1395,
      "##oarea": 1396,
      "##uit": 1397,
      "Mai": 1398,
      "înainte": 1399,
      "stră": 1400,
      "##rup": 1401,
      "##tori": 1402,
      "ban": 1403,
      "Sf": 1404,
      "dori": 1405,
      "##sten": 1406,
      "tehn": 1407,
      "##seri": 1408,
      "##urii": 1409,
      "##ug": 1410,
      "aște": 1411,
      "prie": 1412,
      "lum": 1413,
      "##ob": 1414,
      "##duc": 1415,
      "copil": 1416,
      "##oldo": 1417,
      "conce": 1418,
      "##ac": 1419,
      "cor": 1420,
      "##gist": 1421,
      "posibil": 1422,
      "încer": 1423,
      "##ific": 1424,
      "administ": 1425,
      "##diu": 1426,
      "pen": 1427,
      "uș": 1428,
      "apar": 1429,
      "##ătoare": 1430,
      "##atului": 1431,
      "finan": 1432,
      "##dere": 1433,
      "on": 1434,
      "vin": 1435,
      "##țat": 1436,
      "##aționale": 1437,
      "sex": 1438,
      "gener": 1439,
      "ofer": 1440,
      "sur": 1441,
      "câteva": 1442,
      "conform": 1443,
      "##xim": 1444,
      "acestea": 1445,
      "nat": 1446,
      "Or": 1447,
      "cere": 1448,
      "##oasă": 1449,
      "echip": 1450,
      "##anu": 1451,
      "București": 1452,
      "##rop": 1453,
      "simp": 1454,
      "Tre": 1455,
      "##cii": 1456,
      "nume": 1457,
      "##ându": 1458,
      "acce": 1459,
      "folos": 1460,
      "ide": 1461,
      "inve": 1462,
      "stabil": 1463,
      "Ad": 1464,
      "tră": 1465,
      "Mo": 1466,
      "cole": 1467,
      "apoi": 1468,
      "lei": 1469,
      "##iș": 1470,
      "const": 1471,
      "Eu": 1472,
      "##tează": 1473,
      "##sit": 1474,
      "##tarea": 1475,
      "oraș": 1476,
      "ales": 1477,
      "00": 1478,
      "##diul": 1479,
      "înch": 1480,
      "urma": 1481,
      "îmb": 1482,
      "bună": 1483,
      "Sunt": 1484,
      "##ctive": 1485,
      "efect": 1486,
      "000": 1487,
      "trecut": 1488,
      "său": 1489,
      "##itat": 1490,
      "##rați": 1491,
      "După": 1492,
      "faptul": 1493,
      "##mnă": 1494,
      "Europe": 1495,
      "modi": 1496,
      "punct": 1497,
      "prieten": 1498,
      "spun": 1499,
      "adevăr": 1500,
      "acela": 1501,
      "##uși": 1502,
      "##oman": 1503,
      "nimic": 1504,
      "##itori": 1505,
      "sale": 1506,
      "rezul": 1507,
      "sigur": 1508,
      "crește": 1509,
      "mulți": 1510,
      "##ntul": 1511,
      "luni": 1512,
      "primul": 1513,
      "##tății": 1514,
      "șe": 1515,
      "istori": 1516,
      "răspun": 1517,
      "can": 1518,
      "##mânt": 1519,
      "lă": 1520,
      "14": 1521,
      "învă": 1522,
      "sunte": 1523,
      "importa": 1524,
      "##iu": 1525,
      "##zia": 1526,
      "che": 1527,
      "##et": 1528,
      "##izi": 1529,
      "##fle": 1530,
      "mic": 1531,
      "##mentului": 1532,
      "vedere": 1533,
      "viața": 1534,
      "vo": 1535,
      "13": 1536,
      "aproape": 1537,
      "doi": 1538,
      "stu": 1539,
      "##tra": 1540,
      "Bi": 1541,
      "##par": 1542,
      "cred": 1543,
      "##rarea": 1544,
      "Ju": 1545,
      "contro": 1546,
      "##fi": 1547,
      "##lea": 1548,
      "16": 1549,
      "##erge": 1550,
      "Consili": 1551,
      "mon": 1552,
      "perioada": 1553,
      "Ve": 1554,
      "pune": 1555,
      "dată": 1556,
      "neg": 1557,
      "avem": 1558,
      "ima": 1559,
      "Mă": 1560,
      "eveni": 1561,
      "desch": 1562,
      "gând": 1563,
      "îmi": 1564,
      "președin": 1565,
      "dum": 1566,
      "##ose": 1567,
      "Comis": 1568,
      "rel": 1569,
      "regul": 1570,
      "##oară": 1571,
      "transp": 1572,
      "Acea": 1573,
      "##tor": 1574,
      "resp": 1575,
      "împre": 1576,
      "căr": 1577,
      "vom": 1578,
      "##nea": 1579,
      "17": 1580,
      "potri": 1581,
      "particip": 1582,
      "Do": 1583,
      "##scul": 1584,
      "##rare": 1585,
      "##dus": 1586,
      "##stin": 1587,
      "Moldo": 1588,
      "pove": 1589,
      "domeni": 1590,
      "##ferit": 1591,
      "##asă": 1592,
      "##ase": 1593,
      "Cum": 1594,
      "exi": 1595,
      "##bit": 1596,
      "To": 1597,
      "mân": 1598,
      "##onul": 1599,
      "##lan": 1600,
      "##urat": 1601,
      "declarat": 1602,
      "UE": 1603,
      "lumea": 1604,
      "Ra": 1605,
      "nostru": 1606,
      "vâr": 1607,
      "##ublic": 1608,
      "locul": 1609,
      "##II": 1610,
      "##curi": 1611,
      "toți": 1612,
      "##sion": 1613,
      "alege": 1614,
      "îți": 1615,
      "ești": 1616,
      "site": 1617,
      "##isc": 1618,
      "cri": 1619,
      "##ative": 1620,
      "produse": 1621,
      "dem": 1622,
      "îng": 1623,
      "ame": 1624,
      "Au": 1625,
      "viață": 1626,
      "##ost": 1627,
      "Uni": 1628,
      "date": 1629,
      "et": 1630,
      "Pol": 1631,
      "Tot": 1632,
      "car": 1633,
      "știu": 1634,
      "liber": 1635,
      "##zie": 1636,
      "import": 1637,
      "ag": 1638,
      "##urul": 1639,
      "##luj": 1640,
      "##unile": 1641,
      "##zat": 1642,
      "##eni": 1643,
      "##ok": 1644,
      "##lie": 1645,
      "cult": 1646,
      "ver": 1647,
      "noastră": 1648,
      "##zintă": 1649,
      "##zb": 1650,
      "##RE": 1651,
      "##ferin": 1652,
      "ore": 1653,
      "##ocuri": 1654,
      "##ători": 1655,
      "cate": 1656,
      "##dele": 1657,
      "##dia": 1658,
      "##cută": 1659,
      "Ști": 1660,
      "lip": 1661,
      "săptă": 1662,
      "anga": 1663,
      "noastre": 1664,
      "continu": 1665,
      "div": 1666,
      "##regist": 1667,
      "intern": 1668,
      "feme": 1669,
      "deja": 1670,
      "put": 1671,
      "##imin": 1672,
      "poți": 1673,
      "indi": 1674,
      "At": 1675,
      "exemp": 1676,
      "vine": 1677,
      "25": 1678,
      "##ss": 1679,
      "oblig": 1680,
      "##soci": 1681,
      "joc": 1682,
      "cuv": 1683,
      "maj": 1684,
      "199": 1685,
      "câști": 1686,
      "##tului": 1687,
      "##anie": 1688,
      "Lu": 1689,
      "Că": 1690,
      "##ferite": 1691,
      "maș": 1692,
      "##nic": 1693,
      "direct": 1694,
      "##rului": 1695,
      "înd": 1696,
      "acți": 1697,
      "personal": 1698,
      "##jul": 1699,
      "lup": 1700,
      "conside": 1701,
      "##cup": 1702,
      "##otriva": 1703,
      "##ozit": 1704,
      "##und": 1705,
      "institu": 1706,
      "rând": 1707,
      "toată": 1708,
      "##stăzi": 1709,
      "##tal": 1710,
      "prof": 1711,
      "anun": 1712,
      "Domn": 1713,
      "cunos": 1714,
      "schimb": 1715,
      "##pene": 1716,
      "##gh": 1717,
      "bene": 1718,
      "Prin": 1719,
      "Ba": 1720,
      "luat": 1721,
      "ali": 1722,
      "milioane": 1723,
      "fața": 1724,
      "popul": 1725,
      "2017": 1726,
      "văzut": 1727,
      "local": 1728,
      "ajuns": 1729,
      "##cute": 1730,
      "gene": 1731,
      "Trebuie": 1732,
      "por": 1733,
      "CE": 1734,
      "Acest": 1735,
      "ri": 1736,
      "cara": 1737,
      "Mari": 1738,
      "tri": 1739,
      "lume": 1740,
      "cit": 1741,
      "##ință": 1742,
      "##car": 1743,
      "##făș": 1744,
      "##of": 1745,
      "dece": 1746,
      "României": 1747,
      "##mentare": 1748,
      "##ortul": 1749,
      "##oaște": 1750,
      "contra": 1751,
      "##tive": 1752,
      "##uș": 1753,
      "##nti": 1754,
      "tău": 1755,
      "împreună": 1756,
      "plan": 1757,
      "##bo": 1758,
      "##AT": 1759,
      "##orului": 1760,
      "##știi": 1761,
      "docu": 1762,
      "##melor": 1763,
      "materi": 1764,
      "Ale": 1765,
      "##venit": 1766,
      "##erm": 1767,
      "##telor": 1768,
      "socie": 1769,
      "numele": 1770,
      "##ribu": 1771,
      "##ațională": 1772,
      "experi": 1773,
      "cir": 1774,
      "faci": 1775,
      "cin": 1776,
      "Ai": 1777,
      "vei": 1778,
      "##itățile": 1779,
      "obie": 1780,
      "elect": 1781,
      "desfăș": 1782,
      "##mează": 1783,
      "##itoare": 1784,
      "ge": 1785,
      "înregist": 1786,
      "##tie": 1787,
      "aș": 1788,
      "dev": 1789,
      "grup": 1790,
      "băr": 1791,
      "Const": 1792,
      "##ența": 1793,
      "facă": 1794,
      "##curs": 1795,
      "##brie": 1796,
      "oamenii": 1797,
      "##fici": 1798,
      "came": 1799,
      "interes": 1800,
      "pur": 1801,
      "împotriva": 1802,
      "##zii": 1803,
      "##iul": 1804,
      "##fa": 1805,
      "##ângă": 1806,
      "##lus": 1807,
      "compe": 1808,
      "##eră": 1809,
      "reprezent": 1810,
      "##sat": 1811,
      "Când": 1812,
      "pract": 1813,
      "Moldova": 1814,
      "putem": 1815,
      "altă": 1816,
      "cerce": 1817,
      "erau": 1818,
      "##tin": 1819,
      "##ută": 1820,
      "anum": 1821,
      "Mar": 1822,
      "sti": 1823,
      "Sa": 1824,
      "##ghe": 1825,
      "prez": 1826,
      "ape": 1827,
      "privire": 1828,
      "vie": 1829,
      "Pă": 1830,
      "##cia": 1831,
      "aface": 1832,
      "angaj": 1833,
      "mil": 1834,
      "##țelor": 1835,
      "cump": 1836,
      "post": 1837,
      "țin": 1838,
      "##derea": 1839,
      "moment": 1840,
      "##uale": 1841,
      "100": 1842,
      "##ațiilor": 1843,
      "muncă": 1844,
      "##gat": 1845,
      "##rata": 1846,
      "##mentele": 1847,
      "doua": 1848,
      "Si": 1849,
      "trim": 1850,
      "ridic": 1851,
      "bani": 1852,
      "regi": 1853,
      "servici": 1854,
      "##lică": 1855,
      "proprie": 1856,
      "dă": 1857,
      "##uie": 1858,
      "##pta": 1859,
      "##ărți": 1860,
      "scris": 1861,
      "##cta": 1862,
      "cat": 1863,
      "domn": 1864,
      "##oarece": 1865,
      "##seamnă": 1866,
      "##operi": 1867,
      "baza": 1868,
      "##dem": 1869,
      "totul": 1870,
      "scă": 1871,
      "prive": 1872,
      "află": 1873,
      "aprop": 1874,
      "cauza": 1875,
      "căl": 1876,
      "Deci": 1877,
      "##met": 1878,
      "același": 1879,
      "##itul": 1880,
      "solu": 1881,
      "ia": 1882,
      "##ox": 1883,
      "##zare": 1884,
      "tut": 1885,
      "bune": 1886,
      "##ritate": 1887,
      "supra": 1888,
      "comer": 1889,
      "termen": 1890,
      "##bal": 1891,
      "rep": 1892,
      "2016": 1893,
      "ident": 1894,
      "Io": 1895,
      "telef": 1896,
      "rea": 1897,
      "ha": 1898,
      "##ără": 1899,
      "##rale": 1900,
      "##turi": 1901,
      "##artea": 1902,
      "scur": 1903,
      "folosi": 1904,
      "art": 1905,
      "ați": 1906,
      "##for": 1907,
      "important": 1908,
      "##orno": 1909,
      "bucu": 1910,
      "##fice": 1911,
      "24": 1912,
      "Așa": 1913,
      "lucră": 1914,
      "recun": 1915,
      "Ei": 1916,
      "##tei": 1917,
      "Va": 1918,
      "##RI": 1919,
      "vol": 1920,
      "parti": 1921,
      "##cții": 1922,
      "##ck": 1923,
      "##ital": 1924,
      "cineva": 1925,
      "##ult": 1926,
      "solic": 1927,
      "##iniste": 1928,
      "Fran": 1929,
      "înseamnă": 1930,
      "nea": 1931,
      "##diat": 1932,
      "##ârșit": 1933,
      "Rom": 1934,
      "##iat": 1935,
      "respectiv": 1936,
      "##cer": 1937,
      "##feren": 1938,
      "merge": 1939,
      "abs": 1940,
      "Ga": 1941,
      "săn": 1942,
      "Asta": 1943,
      "##ență": 1944,
      "nor": 1945,
      "putern": 1946,
      "##fin": 1947,
      "jos": 1948,
      "dra": 1949,
      "##lori": 1950,
      "ope": 1951,
      "repe": 1952,
      "21": 1953,
      "##fere": 1954,
      "pia": 1955,
      "##ova": 1956,
      "rău": 1957,
      "##ături": 1958,
      "părin": 1959,
      "diferite": 1960,
      "sprij": 1961,
      "informații": 1962,
      "suntem": 1963,
      "niște": 1964,
      "țară": 1965,
      "capa": 1966,
      "publice": 1967,
      "suc": 1968,
      "lângă": 1969,
      "mici": 1970,
      "##rb": 1971,
      "##terior": 1972,
      "##die": 1973,
      "vorbe": 1974,
      "astăzi": 1975,
      "##stit": 1976,
      "Ha": 1977,
      "financi": 1978,
      "general": 1979,
      "conduce": 1980,
      "dore": 1981,
      "##erat": 1982,
      "Rep": 1983,
      "Bă": 1984,
      "acestei": 1985,
      "##ctele": 1986,
      "conte": 1987,
      "arti": 1988,
      "##babil": 1989,
      "##alu": 1990,
      "sufle": 1991,
      "stă": 1992,
      "muz": 1993,
      "patru": 1994,
      "##siune": 1995,
      "##dat": 1996,
      "##tr": 1997,
      "primit": 1998,
      "##sei": 1999,
      "nouă": 2000,
      "întâln": 2001,
      "##rele": 2002,
      "mart": 2003,
      "lin": 2004,
      "consum": 2005,
      "rămân": 2006,
      "funcțion": 2007,
      "grat": 2008,
      "##ola": 2009,
      "##ex": 2010,
      "hot": 2011,
      "##ism": 2012,
      "niciodată": 2013,
      "amen": 2014,
      "##ke": 2015,
      "sec": 2016,
      "domeniul": 2017,
      "##dată": 2018,
      "ze": 2019,
      "camp": 2020,
      "fond": 2021,
      "mij": 2022,
      "##alitate": 2023,
      "ep": 2024,
      "vot": 2025,
      "Mare": 2026,
      "petre": 2027,
      "zona": 2028,
      "pic": 2029,
      "##can": 2030,
      "auto": 2031,
      "cuno": 2032,
      "exemplu": 2033,
      "##uror": 2034,
      "ata": 2035,
      "jocuri": 2036,
      "22": 2037,
      "vorba": 2038,
      "Acum": 2039,
      "50": 2040,
      "iniți": 2041,
      "modific": 2042,
      "##iilor": 2043,
      "reu": 2044,
      "inclusiv": 2045,
      "##țiilor": 2046,
      "efectu": 2047,
      "motiv": 2048,
      "energ": 2049,
      "##rică": 2050,
      "acu": 2051,
      "##oastră": 2052,
      "mențion": 2053,
      "Iar": 2054,
      "##unie": 2055,
      "##zenta": 2056,
      "tuturor": 2057,
      "##volu": 2058,
      "ziua": 2059,
      "##spect": 2060,
      "instru": 2061,
      "mode": 2062,
      "##scut": 2063,
      "Guvern": 2064,
      "##zboi": 2065,
      "încât": 2066,
      "Nic": 2067,
      "ușor": 2068,
      "ară": 2069,
      "##ant": 2070,
      "trece": 2071,
      "deoarece": 2072,
      "anim": 2073,
      "încep": 2074,
      "aduce": 2075,
      "##gori": 2076,
      "noa": 2077,
      "##alt": 2078,
      "##gre": 2079,
      "gră": 2080,
      "unele": 2081,
      "îndep": 2082,
      "mu": 2083,
      "##orilor": 2084,
      "destul": 2085,
      "prevă": 2086,
      "plus": 2087,
      "trata": 2088,
      "pus": 2089,
      "ada": 2090,
      "începe": 2091,
      "Ge": 2092,
      "place": 2093,
      "ajunge": 2094,
      "implic": 2095,
      "##cident": 2096,
      "uri": 2097,
      "oferă": 2098,
      "##ope": 2099,
      "##vs": 2100,
      "târ": 2101,
      "##UL": 2102,
      "##iembrie": 2103,
      "ocup": 2104,
      "Cel": 2105,
      "##urniz": 2106,
      "##atoare": 2107,
      "Mon": 2108,
      "online": 2109,
      "nivelul": 2110,
      "##resa": 2111,
      "be": 2112,
      "comunic": 2113,
      "ten": 2114,
      "##otel": 2115,
      "buge": 2116,
      "ach": 2117,
      "potrivit": 2118,
      "pregă": 2119,
      "##rec": 2120,
      "române": 2121,
      "vreau": 2122,
      "##itare": 2123,
      "vorb": 2124,
      "##sesc": 2125,
      "Is": 2126,
      "No": 2127,
      "##rica": 2128,
      "acces": 2129,
      "##voc": 2130,
      "efic": 2131,
      "contract": 2132,
      "guvern": 2133,
      "lucruri": 2134,
      "inten": 2135,
      "##ctom": 2136,
      "##stant": 2137,
      "pac": 2138,
      "Ră": 2139,
      "##gn": 2140,
      "Ia": 2141,
      "Car": 2142,
      "Fa": 2143,
      "##sm": 2144,
      "##ilea": 2145,
      "##gea": 2146,
      "##âmb": 2147,
      "Tran": 2148,
      "##ptat": 2149,
      "sfârșit": 2150,
      "sca": 2151,
      "întâlni": 2152,
      "##vent": 2153,
      "greu": 2154,
      "san": 2155,
      "tur": 2156,
      "bol": 2157,
      "anului": 2158,
      "And": 2159,
      "##ința": 2160,
      "2015": 2161,
      "lic": 2162,
      "##ântul": 2163,
      "asi": 2164,
      "probleme": 2165,
      "##tățile": 2166,
      "acasă": 2167,
      "produs": 2168,
      "##dust": 2169,
      "##vede": 2170,
      "aten": 2171,
      "Consiliului": 2172,
      "##ural": 2173,
      "##ctombrie": 2174,
      "2014": 2175,
      "##iale": 2176,
      "arată": 2177,
      "termin": 2178,
      "propri": 2179,
      "sea": 2180,
      "mor": 2181,
      "minute": 2182,
      "lea": 2183,
      "Europa": 2184,
      "##gine": 2185,
      "proie": 2186,
      "Jude": 2187,
      "##ert": 2188,
      "Cur": 2189,
      "săptămân": 2190,
      "momentul": 2191,
      "##pă": 2192,
      "preț": 2193,
      "calitate": 2194,
      "păst": 2195,
      "obs": 2196,
      "##──": 2197,
      "##oș": 2198,
      "noiembrie": 2199,
      "spi": 2200,
      "##viz": 2201,
      "##atorul": 2202,
      "##ntrul": 2203,
      "##gere": 2204,
      "destin": 2205,
      "##anți": 2206,
      "tale": 2207,
      "Dire": 2208,
      "##gii": 2209,
      "veri": 2210,
      "căut": 2211,
      "reprezintă": 2212,
      "furniz": 2213,
      "##eze": 2214,
      "ren": 2215,
      "vedea": 2216,
      "Poate": 2217,
      "inim": 2218,
      "minist": 2219,
      "##alele": 2220,
      "respect": 2221,
      "etc": 2222,
      "##ulie": 2223,
      "##ung": 2224,
      "##ăl": 2225,
      "##ideo": 2226,
      "23": 2227,
      "Ta": 2228,
      "echipa": 2229,
      "fiz": 2230,
      "drum": 2231,
      "având": 2232,
      "um": 2233,
      "##arului": 2234,
      "##upa": 2235,
      "raport": 2236,
      "lans": 2237,
      "##unde": 2238,
      "profes": 2239,
      "nă": 2240,
      "legăt": 2241,
      "vrei": 2242,
      "##deauna": 2243,
      "dintr": 2244,
      "Republic": 2245,
      "##NA": 2246,
      "##urale": 2247,
      "##icul": 2248,
      "datori": 2249,
      "ofici": 2250,
      "##ow": 2251,
      "##ruct": 2252,
      "preci": 2253,
      "analiz": 2254,
      "##cate": 2255,
      "numărul": 2256,
      "##oar": 2257,
      "##neav": 2258,
      "pag": 2259,
      "Univers": 2260,
      "##anul": 2261,
      "drag": 2262,
      "reduce": 2263,
      "octombrie": 2264,
      "##reu": 2265,
      "##toare": 2266,
      "##rație": 2267,
      "##dio": 2268,
      "##ptembrie": 2269,
      "acestora": 2270,
      "fir": 2271,
      "credin": 2272,
      "decembrie": 2273,
      "Ministe": 2274,
      "cuprin": 2275,
      "##NT": 2276,
      "##gerea": 2277,
      "##iti": 2278,
      "puteți": 2279,
      "##siunea": 2280,
      "biseri": 2281,
      "următoare": 2282,
      "##ător": 2283,
      "iunie": 2284,
      "##rice": 2285,
      "Aut": 2286,
      "Astfel": 2287,
      "benefic": 2288,
      "afir": 2289,
      "Inter": 2290,
      "departe": 2291,
      "printre": 2292,
      "##net": 2293,
      "bl": 2294,
      "##oara": 2295,
      "grij": 2296,
      "număr": 2297,
      "##sca": 2298,
      "proces": 2299,
      "dia": 2300,
      "##atorii": 2301,
      "calcul": 2302,
      "##onsa": 2303,
      "cetă": 2304,
      "Tra": 2305,
      "##ziu": 2306,
      "So": 2307,
      "ref": 2308,
      "rezultate": 2309,
      "Af": 2310,
      "teren": 2311,
      "vic": 2312,
      "privește": 2313,
      "##carea": 2314,
      "limba": 2315,
      "##gust": 2316,
      "##ris": 2317,
      "propune": 2318,
      "discu": 2319,
      "prelu": 2320,
      "Vă": 2321,
      "dumneav": 2322,
      "urmare": 2323,
      "Cred": 2324,
      "##itorul": 2325,
      "Miha": 2326,
      "Biseri": 2327,
      "ului": 2328,
      "întrea": 2329,
      "##ărâ": 2330,
      "##stiv": 2331,
      "comerci": 2332,
      "rece": 2333,
      "##oritatea": 2334,
      "2013": 2335,
      "##înd": 2336,
      "interi": 2337,
      "transport": 2338,
      "Parla": 2339,
      "##anii": 2340,
      "servicii": 2341,
      "Bra": 2342,
      "##mas": 2343,
      "Ele": 2344,
      "septembrie": 2345,
      "##ativă": 2346,
      "măr": 2347,
      "spați": 2348,
      "##ritori": 2349,
      "##sește": 2350,
      "prom": 2351,
      "Regul": 2352,
      "Alex": 2353,
      "încre": 2354,
      "cinci": 2355,
      "sân": 2356,
      "Fil": 2357,
      "permite": 2358,
      "##SD": 2359,
      "simplu": 2360,
      "tex": 2361,
      "##utul": 2362,
      "Constanța": 2363,
      "deose": 2364,
      "Ac": 2365,
      "ate": 2366,
      "stra": 2367,
      "##OR": 2368,
      "##ft": 2369,
      "Rus": 2370,
      "##semn": 2371,
      "pozi": 2372,
      "jum": 2373,
      "##onale": 2374,
      "devenit": 2375,
      "duce": 2376,
      "moder": 2377,
      "găsi": 2378,
      "aer": 2379,
      "dreptul": 2380,
      "##itar": 2381,
      "adevărat": 2382,
      "învăță": 2383,
      "vân": 2384,
      "norm": 2385,
      "putut": 2386,
      "##mii": 2387,
      "zis": 2388,
      "##ximativ": 2389,
      "dispozi": 2390,
      "fotograf": 2391,
      "americ": 2392,
      "den": 2393,
      "##termin": 2394,
      "perioadă": 2395,
      "##ang": 2396,
      "##uală": 2397,
      "##run": 2398,
      "cost": 2399,
      "Tim": 2400,
      "##țea": 2401,
      "pici": 2402,
      "##ins": 2403,
      "singur": 2404,
      "școl": 2405,
      "temp": 2406,
      "facem": 2407,
      "##arta": 2408,
      "ti": 2409,
      "Acesta": 2410,
      "dimin": 2411,
      "asa": 2412,
      "civ": 2413,
      "fra": 2414,
      "tit": 2415,
      "Cluj": 2416,
      "articolul": 2417,
      "dvs": 2418,
      "daca": 2419,
      "##știa": 2420,
      "diver": 2421,
      "mele": 2422,
      "intro": 2423,
      "##enți": 2424,
      "##bate": 2425,
      "juri": 2426,
      "șef": 2427,
      "simți": 2428,
      "membre": 2429,
      "eta": 2430,
      "##ologie": 2431,
      "scrie": 2432,
      "edi": 2433,
      "Aceasta": 2434,
      "##ierul": 2435,
      "mâ": 2436,
      "##IC": 2437,
      "adă": 2438,
      "##don": 2439,
      "##cției": 2440,
      "##mne": 2441,
      "##las": 2442,
      "funcție": 2443,
      "turi": 2444,
      "atra": 2445,
      "Îmi": 2446,
      "##ger": 2447,
      "meci": 2448,
      "##dine": 2449,
      "spirit": 2450,
      "responsa": 2451,
      "corp": 2452,
      "##riei": 2453,
      "##zute": 2454,
      "pierd": 2455,
      "nimeni": 2456,
      "##unilor": 2457,
      "extre": 2458,
      "port": 2459,
      "##cată": 2460,
      "educ": 2461,
      "găsit": 2462,
      "alături": 2463,
      "iulie": 2464,
      "##lei": 2465,
      "##ierea": 2466,
      "##țen": 2467,
      "program": 2468,
      "##mar": 2469,
      "știe": 2470,
      "acestor": 2471,
      "##cri": 2472,
      "indust": 2473,
      "martie": 2474,
      "secre": 2475,
      "probabil": 2476,
      "##lement": 2477,
      "curs": 2478,
      "Regula": 2479,
      "Tu": 2480,
      "control": 2481,
      "dure": 2482,
      "vechi": 2483,
      "im": 2484,
      "Mun": 2485,
      "efe": 2486,
      "ime": 2487,
      "28": 2488,
      "##su": 2489,
      "##ocmai": 2490,
      "obține": 2491,
      "DE": 2492,
      "locuri": 2493,
      "##anua": 2494,
      "27": 2495,
      "rămâne": 2496,
      "articol": 2497,
      "##anuarie": 2498,
      "40": 2499,
      "susține": 2500,
      "conformitate": 2501,
      "##ER": 2502,
      "2012": 2503,
      "evide": 2504,
      "maxim": 2505,
      "teritori": 2506,
      "sin": 2507,
      "##bul": 2508,
      "##feră": 2509,
      "azi": 2510,
      "aproximativ": 2511,
      "sistem": 2512,
      "trea": 2513,
      "lucrurile": 2514,
      "mulț": 2515,
      "rezi": 2516,
      "uci": 2517,
      "##isl": 2518,
      "##oarele": 2519,
      "##bru": 2520,
      "emis": 2521,
      "sprijin": 2522,
      "##len": 2523,
      "fii": 2524,
      "TV": 2525,
      "Nici": 2526,
      "deschide": 2527,
      "pop": 2528,
      "văd": 2529,
      "condu": 2530,
      "26": 2531,
      "Atunci": 2532,
      "##alte": 2533,
      "the": 2534,
      "European": 2535,
      "oca": 2536,
      "bază": 2537,
      "##cursul": 2538,
      "##țean": 2539,
      "Chi": 2540,
      "Cine": 2541,
      "vreme": 2542,
      "mesa": 2543,
      "tax": 2544,
      "modul": 2545,
      "##aj": 2546,
      "deschis": 2547,
      "ajuta": 2548,
      "observ": 2549,
      "rezol": 2550,
      "dau": 2551,
      "##rația": 2552,
      "##rici": 2553,
      "muri": 2554,
      "stud": 2555,
      "Be": 2556,
      "siguranță": 2557,
      "luna": 2558,
      "##raj": 2559,
      "##ânde": 2560,
      "tradi": 2561,
      "ianuarie": 2562,
      "##alului": 2563,
      "##bilitate": 2564,
      "Chiar": 2565,
      "##iului": 2566,
      "##când": 2567,
      "struct": 2568,
      "afaceri": 2569,
      "##stig": 2570,
      "telefon": 2571,
      "dumneavoastră": 2572,
      "SU": 2573,
      "jurul": 2574,
      "##stat": 2575,
      "afl": 2576,
      "##eam": 2577,
      "miș": 2578,
      "The": 2579,
      "exact": 2580,
      "##înt": 2581,
      "copiii": 2582,
      "##ările": 2583,
      "afla": 2584,
      "alb": 2585,
      "ris": 2586,
      "##oz": 2587,
      "##anda": 2588,
      "##ibe": 2589,
      "asoci": 2590,
      "Cri": 2591,
      "categori": 2592,
      "##anții": 2593,
      "promov": 2594,
      "##atorilor": 2595,
      "Per": 2596,
      "Ur": 2597,
      "răspuns": 2598,
      "##ian": 2599,
      "imagin": 2600,
      "##rilie": 2601,
      "membru": 2602,
      "tru": 2603,
      "național": 2604,
      "mereu": 2605,
      "##icei": 2606,
      "##ctorul": 2607,
      "##lini": 2608,
      "absol": 2609,
      "sar": 2610,
      "aceeași": 2611,
      "we": 2612,
      "##ștri": 2613,
      "Comp": 2614,
      "închis": 2615,
      "##ităților": 2616,
      "##ibile": 2617,
      "ajutorul": 2618,
      "##reau": 2619,
      "dos": 2620,
      "##tific": 2621,
      "##ST": 2622,
      "##otdeauna": 2623,
      "indic": 2624,
      "##urarea": 2625,
      "explic": 2626,
      "Național": 2627,
      "##ismul": 2628,
      "##ristos": 2629,
      "##ros": 2630,
      "constitu": 2631,
      "para": 2632,
      "##ive": 2633,
      "capac": 2634,
      "ultima": 2635,
      "##ue": 2636,
      "sistemul": 2637,
      "Comisia": 2638,
      "integ": 2639,
      "capit": 2640,
      "##ster": 2641,
      "##chii": 2642,
      "univers": 2643,
      "supli": 2644,
      "2011": 2645,
      "legisl": 2646,
      "exer": 2647,
      "ascul": 2648,
      "administrat": 2649,
      "valoare": 2650,
      "arm": 2651,
      "președinte": 2652,
      "determin": 2653,
      "##com": 2654,
      "##cole": 2655,
      "Această": 2656,
      "reușit": 2657,
      "prevede": 2658,
      "investi": 2659,
      "##alitatea": 2660,
      "intre": 2661,
      "partene": 2662,
      "##selor": 2663,
      "salari": 2664,
      "mama": 2665,
      "excep": 2666,
      "cam": 2667,
      "##ner": 2668,
      "##IN": 2669,
      "##dului": 2670,
      "deși": 2671,
      "carte": 2672,
      "il": 2673,
      "##ly": 2674,
      "##AR": 2675,
      "##uite": 2676,
      "vezi": 2677,
      "târziu": 2678,
      "##gari": 2679,
      "##zele": 2680,
      "Mul": 2681,
      "stil": 2682,
      "amin": 2683,
      "##les": 2684,
      "necesare": 2685,
      "seama": 2686,
      "Uniunii": 2687,
      "##tii": 2688,
      "##arde": 2689,
      "politic": 2690,
      "Du": 2691,
      "jumătate": 2692,
      "Era": 2693,
      "##barea": 2694,
      "Cont": 2695,
      "seri": 2696,
      "##aniei": 2697,
      "aprilie": 2698,
      "tată": 2699,
      "persoană": 2700,
      "știi": 2701,
      "europe": 2702,
      "Ion": 2703,
      "aibă": 2704,
      "##dei": 2705,
      "##tro": 2706,
      "ec": 2707,
      "acestuia": 2708,
      "##elt": 2709,
      "##unt": 2710,
      "##sih": 2711,
      "stand": 2712,
      "aveți": 2713,
      "zon": 2714,
      "succes": 2715,
      "crede": 2716,
      "##iectul": 2717,
      "##anțe": 2718,
      "##iesc": 2719,
      "asigură": 2720,
      "poliți": 2721,
      "condițiile": 2722,
      "dom": 2723,
      "război": 2724,
      "##izarea": 2725,
      "##AL": 2726,
      "iz": 2727,
      "Europene": 2728,
      "##lia": 2729,
      "rog": 2730,
      "fran": 2731,
      "##tim": 2732,
      "corect": 2733,
      "omul": 2734,
      "invit": 2735,
      "consul": 2736,
      "##ou": 2737,
      "țări": 2738,
      "cola": 2739,
      "Cap": 2740,
      "evalu": 2741,
      "II": 2742,
      "importante": 2743,
      "##chipe": 2744,
      "infra": 2745,
      "##vie": 2746,
      "198": 2747,
      "dus": 2748,
      "publică": 2749,
      "august": 2750,
      "##rian": 2751,
      "31": 2752,
      "continuare": 2753,
      "pres": 2754,
      "##stic": 2755,
      "cunoscut": 2756,
      "##bili": 2757,
      "amp": 2758,
      "##bare": 2759,
      "##ente": 2760,
      "PSD": 2761,
      "##isi": 2762,
      "##știn": 2763,
      "sănătate": 2764,
      "##ționale": 2765,
      "eg": 2766,
      "ăsta": 2767,
      "##inele": 2768,
      "ae": 2769,
      "președintele": 2770,
      "existen": 2771,
      "##ton": 2772,
      "vieții": 2773,
      "rom": 2774,
      "formă": 2775,
      "alin": 2776,
      "mot": 2777,
      "##oca": 2778,
      "familie": 2779,
      "res": 2780,
      "29": 2781,
      "##siuni": 2782,
      "##ome": 2783,
      "extra": 2784,
      "casa": 2785,
      "##ilă": 2786,
      "Ant": 2787,
      "îmbună": 2788,
      "##aților": 2789,
      "aminte": 2790,
      "##uta": 2791,
      "perfect": 2792,
      "Ea": 2793,
      "perm": 2794,
      "Ame": 2795,
      "man": 2796,
      "Cele": 2797,
      "rămas": 2798,
      "hotel": 2799,
      "asc": 2800,
      "bărb": 2801,
      "anumite": 2802,
      "Tur": 2803,
      "##otrivit": 2804,
      "##ka": 2805,
      "mana": 2806,
      "lide": 2807,
      "##alizare": 2808,
      "casă": 2809,
      "însc": 2810,
      "aflat": 2811,
      "interme": 2812,
      "film": 2813,
      "2009": 2814,
      "vederea": 2815,
      "diminea": 2816,
      "##inți": 2817,
      "bo": 2818,
      "proiecte": 2819,
      "imediat": 2820,
      "Noi": 2821,
      "Comisiei": 2822,
      "întâmplă": 2823,
      "sper": 2824,
      "bloc": 2825,
      "meto": 2826,
      "##AN": 2827,
      "##unat": 2828,
      "2010": 2829,
      "municip": 2830,
      "##țare": 2831,
      "români": 2832,
      "scu": 2833,
      "##izare": 2834,
      "##umesc": 2835,
      "##eau": 2836,
      "locale": 2837,
      "adu": 2838,
      "##curitate": 2839,
      "##vat": 2840,
      "##rui": 2841,
      "caracte": 2842,
      "veți": 2843,
      "##arie": 2844,
      "distru": 2845,
      "frumos": 2846,
      "##mână": 2847,
      "##găt": 2848,
      "##șii": 2849,
      "Cor": 2850,
      "##IT": 2851,
      "sat": 2852,
      "##bia": 2853,
      "poe": 2854,
      "cite": 2855,
      "echipe": 2856,
      "Jo": 2857,
      "##țile": 2858,
      "##anife": 2859,
      "urmează": 2860,
      "##țional": 2861,
      "##urare": 2862,
      "##ricul": 2863,
      "exce": 2864,
      "șco": 2865,
      "obicei": 2866,
      "##cere": 2867,
      "##mna": 2868,
      "lov": 2869,
      "scop": 2870,
      "folosit": 2871,
      "drago": 2872,
      "pământ": 2873,
      "Cer": 2874,
      "sele": 2875,
      "Serv": 2876,
      "femei": 2877,
      "Cop": 2878,
      "video": 2879,
      "##ki": 2880,
      "clă": 2881,
      "maga": 2882,
      "##oace": 2883,
      "final": 2884,
      "##leg": 2885,
      "cant": 2886,
      "Mu": 2887,
      "##artă": 2888,
      "##sia": 2889,
      "primi": 2890,
      "Care": 2891,
      "complet": 2892,
      "aline": 2893,
      "recom": 2894,
      "familia": 2895,
      "viitor": 2896,
      "depă": 2897,
      "Loc": 2898,
      "##ila": 2899,
      "##tit": 2900,
      "altfel": 2901,
      "ef": 2902,
      "pregăti": 2903,
      "##amente": 2904,
      "##stra": 2905,
      "șan": 2906,
      "condiții": 2907,
      "##han": 2908,
      "mică": 2909,
      "Av": 2910,
      "Cod": 2911,
      "##dar": 2912,
      "cand": 2913,
      "Min": 2914,
      "singură": 2915,
      "Ioan": 2916,
      "măcar": 2917,
      "Sunte": 2918,
      "demon": 2919,
      "dezvoltarea": 2920,
      "adică": 2921,
      "pierdut": 2922,
      "fata": 2923,
      "Ob": 2924,
      "##bilitatea": 2925,
      "vreo": 2926,
      "Potrivit": 2927,
      "unii": 2928,
      "est": 2929,
      "întoar": 2930,
      "Face": 2931,
      "sufic": 2932,
      "multi": 2933,
      "##ază": 2934,
      "extrem": 2935,
      "rugă": 2936,
      "##cra": 2937,
      "oferi": 2938,
      "chelt": 2939,
      "adus": 2940,
      "naționale": 2941,
      "activitatea": 2942,
      "##reze": 2943,
      "agen": 2944,
      "##șul": 2945,
      "exclu": 2946,
      "ține": 2947,
      "sens": 2948,
      "măsură": 2949,
      "Drag": 2950,
      "legătură": 2951,
      "##ON": 2952,
      "Vic": 2953,
      "încăl": 2954,
      "##bol": 2955,
      "##vizi": 2956,
      "fiu": 2957,
      "##spi": 2958,
      "relig": 2959,
      "pi": 2960,
      "stare": 2961,
      "vrut": 2962,
      "sce": 2963,
      "modifică": 2964,
      "##apoi": 2965,
      "##bruarie": 2966,
      "##depen": 2967,
      "îngrij": 2968,
      "origin": 2969,
      "bar": 2970,
      "influ": 2971,
      "apare": 2972,
      "Vi": 2973,
      "situația": 2974,
      "prime": 2975,
      "politică": 2976,
      "##ărat": 2977,
      "##altă": 2978,
      "desig": 2979,
      "Ave": 2980,
      "circul": 2981,
      "##utate": 2982,
      "##lip": 2983,
      "Ie": 2984,
      "##vers": 2985,
      "Mic": 2986,
      "afară": 2987,
      "băt": 2988,
      "##umul": 2989,
      "județul": 2990,
      "Asoci": 2991,
      "Bine": 2992,
      "##zarea": 2993,
      "țara": 2994,
      "Aca": 2995,
      "Ghe": 2996,
      "părți": 2997,
      "multă": 2998,
      "europene": 2999,
      "înf": 3000,
      "femeie": 3001,
      "întor": 3002,
      "candi": 3003,
      "râ": 3004,
      "intere": 3005,
      "##fera": 3006,
      "sărb": 3007,
      "##cați": 3008,
      "##ry": 3009,
      "##dare": 3010,
      "sociale": 3011,
      "arun": 3012,
      "dub": 3013,
      "##rească": 3014,
      "Timiș": 3015,
      "Ol": 3016,
      "ado": 3017,
      "profesion": 3018,
      "2008": 3019,
      "Na": 3020,
      "valori": 3021,
      "##zon": 3022,
      "printr": 3023,
      "##ral": 3024,
      "##cător": 3025,
      "es": 3026,
      "lua": 3027,
      "##ferent": 3028,
      "prem": 3029,
      "subst": 3030,
      "Alexand": 3031,
      "##son": 3032,
      "Sim": 3033,
      "zone": 3034,
      "corespun": 3035,
      "##țarea": 3036,
      "Toate": 3037,
      "sânge": 3038,
      "##pat": 3039,
      "Artic": 3040,
      "continuă": 3041,
      "##ptea": 3042,
      "superi": 3043,
      "##tod": 3044,
      "Președin": 3045,
      "doilea": 3046,
      "manife": 3047,
      "identific": 3048,
      "##van": 3049,
      "ero": 3050,
      "transform": 3051,
      "##onia": 3052,
      "##oși": 3053,
      "pacien": 3054,
      "cunoaște": 3055,
      "Intern": 3056,
      "##cter": 3057,
      "referit": 3058,
      "##rumul": 3059,
      "stri": 3060,
      "##rateg": 3061,
      "serie": 3062,
      "##fiin": 3063,
      "##sh": 3064,
      "psih": 3065,
      "dur": 3066,
      "##ordon": 3067,
      "primă": 3068,
      "persona": 3069,
      "##DE": 3070,
      "total": 3071,
      "necesar": 3072,
      "explo": 3073,
      "liter": 3074,
      "întâlniri": 3075,
      "acel": 3076,
      "Doar": 3077,
      "aplicare": 3078,
      "##ătă": 3079,
      "mijloc": 3080,
      "he": 3081,
      "copiilor": 3082,
      "realizat": 3083,
      "dupa": 3084,
      "februarie": 3085,
      "Ni": 3086,
      "contact": 3087,
      "următ": 3088,
      "ordin": 3089,
      "dove": 3090,
      "gu": 3091,
      "biro": 3092,
      "scurt": 3093,
      "##mentelor": 3094,
      "En": 3095,
      "##ologice": 3096,
      "indivi": 3097,
      "Porno": 3098,
      "întâmplat": 3099,
      "Mihai": 3100,
      "##ota": 3101,
      "punctul": 3102,
      "une": 3103,
      "##inde": 3104,
      "statului": 3105,
      "emo": 3106,
      "instal": 3107,
      "##știlor": 3108,
      "vac": 3109,
      "prevăzute": 3110,
      "consider": 3111,
      "##țului": 3112,
      "gar": 3113,
      "formul": 3114,
      "întreaga": 3115,
      "nep": 3116,
      "regula": 3117,
      "##dică": 3118,
      "Bar": 3119,
      "fisc": 3120,
      "vis": 3121,
      "scopul": 3122,
      "##roase": 3123,
      "contribu": 3124,
      "On": 3125,
      "##bele": 3126,
      "State": 3127,
      "##gență": 3128,
      "gânde": 3129,
      "eveniment": 3130,
      "Trans": 3131,
      "##cători": 3132,
      "seara": 3133,
      "##alog": 3134,
      "##gent": 3135,
      "Ban": 3136,
      "următoarele": 3137,
      "lar": 3138,
      "mii": 3139,
      "Regulamentul": 3140,
      "Geor": 3141,
      "Hristos": 3142,
      "clien": 3143,
      "acoperi": 3144,
      "mag": 3145,
      "Consiliul": 3146,
      "rezerv": 3147,
      "dol": 3148,
      "specta": 3149,
      "niciun": 3150,
      "state": 3151,
      "crit": 3152,
      "##bări": 3153,
      "intrat": 3154,
      "##eaza": 3155,
      "mediu": 3156,
      "evolu": 3157,
      "lini": 3158,
      "Li": 3159,
      "mie": 3160,
      "repede": 3161,
      "cuvinte": 3162,
      "minim": 3163,
      "banii": 3164,
      "defin": 3165,
      "sfârșitul": 3166,
      "elev": 3167,
      "asigura": 3168,
      "auzit": 3169,
      "noapte": 3170,
      "porn": 3171,
      "##alizarea": 3172,
      "Gre": 3173,
      "trat": 3174,
      "legate": 3175,
      "60": 3176,
      "ajutor": 3177,
      "dedic": 3178,
      "##cit": 3179,
      "cale": 3180,
      "##nit": 3181,
      "##iește": 3182,
      "motive": 3183,
      "primele": 3184,
      "##ban": 3185,
      "anunțat": 3186,
      "##zează": 3187,
      "Fie": 3188,
      "clădi": 3189,
      "New": 3190,
      "orașului": 3191,
      "principal": 3192,
      "##dial": 3193,
      "Unite": 3194,
      "##ciu": 3195,
      "Doa": 3196,
      "##denți": 3197,
      "întreprin": 3198,
      "pere": 3199,
      "Ministerul": 3200,
      "##omat": 3201,
      "oră": 3202,
      "ultimul": 3203,
      "convin": 3204,
      "anii": 3205,
      "##ismului": 3206,
      "forma": 3207,
      "##UR": 3208,
      "achizi": 3209,
      "compar": 3210,
      "energie": 3211,
      "creat": 3212,
      "Zi": 3213,
      "altele": 3214,
      "##ctivă": 3215,
      "materiale": 3216,
      "194": 3217,
      "##arcă": 3218,
      "Pop": 3219,
      "##bin": 3220,
      "zonă": 3221,
      "##bun": 3222,
      "piață": 3223,
      "SUA": 3224,
      "Pat": 3225,
      "##uia": 3226,
      "atin": 3227,
      "social": 3228,
      "sine": 3229,
      "frec": 3230,
      "posibilitatea": 3231,
      "##gini": 3232,
      "tare": 3233,
      "##vei": 3234,
      "recoman": 3235,
      "##ront": 3236,
      "afe": 3237,
      "centr": 3238,
      "concurs": 3239,
      "Bo": 3240,
      "doresc": 3241,
      "##tării": 3242,
      "rele": 3243,
      "caracter": 3244,
      "##ah": 3245,
      "##lalte": 3246,
      "bog": 3247,
      "verific": 3248,
      "##lice": 3249,
      "înain": 3250,
      "Europeană": 3251,
      "##rației": 3252,
      "drea": 3253,
      "##gle": 3254,
      "țării": 3255,
      "Sh": 3256,
      "tocmai": 3257,
      "puncte": 3258,
      "colabor": 3259,
      "anex": 3260,
      "##sim": 3261,
      "clar": 3262,
      "totuși": 3263,
      "med": 3264,
      "Între": 3265,
      "dispozit": 3266,
      "spui": 3267,
      "semnific": 3268,
      "întâlnire": 3269,
      "dezvoltare": 3270,
      "500": 3271,
      "conse": 3272,
      "îmbunătăți": 3273,
      "nicio": 3274,
      "începutul": 3275,
      "##nță": 3276,
      "##ntat": 3277,
      "##diului": 3278,
      "##rg": 3279,
      "Vreau": 3280,
      "merg": 3281,
      "ochii": 3282,
      "măsuri": 3283,
      "creștere": 3284,
      "Primă": 3285,
      "alineatul": 3286,
      "sla": 3287,
      "##tar": 3288,
      "exista": 3289,
      "##lub": 3290,
      "##ctiva": 3291,
      "##âl": 3292,
      "km": 3293,
      "cart": 3294,
      "Mil": 3295,
      "lan": 3296,
      "Apoi": 3297,
      "descoperi": 3298,
      "comis": 3299,
      "##geri": 3300,
      "plecat": 3301,
      "Nicola": 3302,
      "Domnul": 3303,
      "trimis": 3304,
      "Dan": 3305,
      "porno": 3306,
      "Op": 3307,
      "##erare": 3308,
      "rest": 3309,
      "sluj": 3310,
      "resta": 3311,
      "majoritatea": 3312,
      "##cului": 3313,
      "justi": 3314,
      "fab": 3315,
      "Germ": 3316,
      "##book": 3317,
      "Vale": 3318,
      "regim": 3319,
      "Domnului": 3320,
      "Aceste": 3321,
      "întotdeauna": 3322,
      "călători": 3323,
      "vârstă": 3324,
      "intermediul": 3325,
      "supraf": 3326,
      "plat": 3327,
      "##inei": 3328,
      "2007": 3329,
      "murit": 3330,
      "##atorului": 3331,
      "problema": 3332,
      "dific": 3333,
      "înapoi": 3334,
      "##cțiuni": 3335,
      "roman": 3336,
      "##vanta": 3337,
      "diferen": 3338,
      "putere": 3339,
      "susțin": 3340,
      "##unț": 3341,
      "##uirea": 3342,
      "intră": 3343,
      "##căm": 3344,
      "##rată": 3345,
      "căsă": 3346,
      "Sal": 3347,
      "rapid": 3348,
      "##ation": 3349,
      "##rap": 3350,
      "Gheor": 3351,
      "accident": 3352,
      "confir": 3353,
      "document": 3354,
      "dea": 3355,
      "##alți": 3356,
      "##20": 3357,
      "##ișn": 3358,
      "afect": 3359,
      "lemn": 3360,
      "detal": 3361,
      "provoc": 3362,
      "înche": 3363,
      "beneficia": 3364,
      "lumii": 3365,
      "piața": 3366,
      "întru": 3367,
      "Pute": 3368,
      "real": 3369,
      "lege": 3370,
      "impre": 3371,
      "aplică": 3372,
      "Republica": 3373,
      "acțion": 3374,
      "ședin": 3375,
      "Comun": 3376,
      "Ci": 3377,
      "vorbit": 3378,
      "noștri": 3379,
      "alții": 3380,
      "##ît": 3381,
      "activități": 3382,
      "Gen": 3383,
      "funcți": 3384,
      "Go": 3385,
      "vite": 3386,
      "##dice": 3387,
      "##atii": 3388,
      "##uți": 3389,
      "afara": 3390,
      "##es": 3391,
      "diverse": 3392,
      "chi": 3393,
      "Fin": 3394,
      "##iente": 3395,
      "naște": 3396,
      "##jun": 3397,
      "##nice": 3398,
      "Deși": 3399,
      "problemă": 3400,
      "deza": 3401,
      "Mat": 3402,
      "obișn": 3403,
      "vizi": 3404,
      "##anței": 3405,
      "##ram": 3406,
      "astea": 3407,
      "Romania": 3408,
      "coment": 3409,
      "iube": 3410,
      "ieși": 3411,
      "cetățen": 3412,
      "pozit": 3413,
      "##tăților": 3414,
      "##izat": 3415,
      "Reg": 3416,
      "oamenilor": 3417,
      "intr": 3418,
      "bărbat": 3419,
      "##OM": 3420,
      "clasa": 3421,
      "rol": 3422,
      "spor": 3423,
      "lit": 3424,
      "Într": 3425,
      "bra": 3426,
      "indepen": 3427,
      "felul": 3428,
      "odată": 3429,
      "resur": 3430,
      "Cei": 3431,
      "pierde": 3432,
      "desp": 3433,
      "##ful": 3434,
      "Ora": 3435,
      "##isa": 3436,
      "dimen": 3437,
      "oficial": 3438,
      "Fo": 3439,
      "gol": 3440,
      "##ieri": 3441,
      "##LE": 3442,
      "interpre": 3443,
      "înca": 3444,
      "##duri": 3445,
      "valoarea": 3446,
      "denum": 3447,
      "recomand": 3448,
      "proiectului": 3449,
      "##rog": 3450,
      "##inică": 3451,
      "##utat": 3452,
      "fer": 3453,
      "tehnolog": 3454,
      "înțelege": 3455,
      "model": 3456,
      "Iași": 3457,
      "anume": 3458,
      "vedem": 3459,
      "Nicolae": 3460,
      "efort": 3461,
      "organizat": 3462,
      "Germania": 3463,
      "35": 3464,
      "##tali": 3465,
      "##ainte": 3466,
      "orașul": 3467,
      "începând": 3468,
      "##otul": 3469,
      "alta": 3470,
      "##alizat": 3471,
      "drumul": 3472,
      "##cări": 3473,
      "datorită": 3474,
      "Legea": 3475,
      "poveste": 3476,
      "Câ": 3477,
      "##oacă": 3478,
      "securitate": 3479,
      "Came": 3480,
      "mobil": 3481,
      "adăug": 3482,
      "france": 3483,
      "conținut": 3484,
      "##operit": 3485,
      "activitate": 3486,
      "##zate": 3487,
      "săptămâni": 3488,
      "parla": 3489,
      "păr": 3490,
      "##ime": 3491,
      "fav": 3492,
      "##IE": 3493,
      "Progra": 3494,
      "partici": 3495,
      "##cât": 3496,
      "fru": 3497,
      "actu": 3498,
      "aceștia": 3499,
      "sistemului": 3500,
      "cauză": 3501,
      "șase": 3502,
      "susp": 3503,
      "##IA": 3504,
      "acesteia": 3505,
      "aspect": 3506,
      "197": 3507,
      "anti": 3508,
      "masa": 3509,
      "încercat": 3510,
      "zic": 3511,
      "Bel": 3512,
      "puternic": 3513,
      "gesti": 3514,
      "serviciu": 3515,
      "##inile": 3516,
      "presup": 3517,
      "Există": 3518,
      "Di": 3519,
      "proa": 3520,
      "inima": 3521,
      "fact": 3522,
      "##șină": 3523,
      "##arh": 3524,
      "##sie": 3525,
      "simt": 3526,
      "ela": 3527,
      "Vo": 3528,
      "datelor": 3529,
      "##usă": 3530,
      "politice": 3531,
      "##jele": 3532,
      "procesul": 3533,
      "##itudin": 3534,
      "competen": 3535,
      "Marea": 3536,
      "prezintă": 3537,
      "sunteți": 3538,
      "intra": 3539,
      "trebu": 3540,
      "##isco": 3541,
      "##go": 3542,
      "persoanele": 3543,
      "Ste": 3544,
      "Articolul": 3545,
      "##ugă": 3546,
      "Fi": 3547,
      "aștept": 3548,
      "fiș": 3549,
      "##zei": 3550,
      "creșterea": 3551,
      "gratuit": 3552,
      "mat": 3553,
      "apa": 3554,
      "glo": 3555,
      "financiare": 3556,
      "premi": 3557,
      "##riat": 3558,
      "simil": 3559,
      "complex": 3560,
      "consideră": 3561,
      "contex": 3562,
      "##giu": 3563,
      "dolari": 3564,
      "prezenta": 3565,
      "crescut": 3566,
      "prezentat": 3567,
      "gro": 3568,
      "celui": 3569,
      "extin": 3570,
      "##bel": 3571,
      "##oli": 3572,
      "autoritățile": 3573,
      "proiectul": 3574,
      "nord": 3575,
      "masă": 3576,
      "utilizarea": 3577,
      "varia": 3578,
      "trimite": 3579,
      "##ler": 3580,
      "hotărâ": 3581,
      "##ieră": 3582,
      "##urală": 3583,
      "mei": 3584,
      "vig": 3585,
      "##iercuri": 3586,
      "##tice": 3587,
      "Cult": 3588,
      "perform": 3589,
      "grijă": 3590,
      "lung": 3591,
      "##inii": 3592,
      "numit": 3593,
      "##erti": 3594,
      "##ivă": 3595,
      "##stice": 3596,
      "arh": 3597,
      "##forma": 3598,
      "Constant": 3599,
      "democ": 3600,
      "mas": 3601,
      "luptă": 3602,
      "lăsat": 3603,
      "##todox": 3604,
      "Ro": 3605,
      "Sau": 3606,
      "încredere": 3607,
      "far": 3608,
      "Ja": 3609,
      "##icile": 3610,
      "decis": 3611,
      "obiective": 3612,
      "super": 3613,
      "##ula": 3614,
      "poli": 3615,
      "##ork": 3616,
      "Prima": 3617,
      "crea": 3618,
      "cerin": 3619,
      "iau": 3620,
      "##iza": 3621,
      "puterea": 3622,
      "liv": 3623,
      "apari": 3624,
      "deoseb": 3625,
      "protej": 3626,
      "îns": 3627,
      "cerut": 3628,
      "închi": 3629,
      "##uda": 3630,
      "##vine": 3631,
      "##stență": 3632,
      "##erman": 3633,
      "##ribui": 3634,
      "săi": 3635,
      "##garia": 3636,
      "animale": 3637,
      "eram": 3638,
      "metri": 3639,
      "##nele": 3640,
      "aia": 3641,
      "strateg": 3642,
      "2006": 3643,
      "Ser": 3644,
      "##uire": 3645,
      "Cea": 3646,
      "##aptă": 3647,
      "##hic": 3648,
      "vinde": 3649,
      "##AS": 3650,
      "##tură": 3651,
      "născut": 3652,
      "băn": 3653,
      "învățământ": 3654,
      "mem": 3655,
      "acor": 3656,
      "strân": 3657,
      "produce": 3658,
      "rut": 3659,
      "Aici": 3660,
      "##oci": 3661,
      "ochi": 3662,
      "prost": 3663,
      "Gheorghe": 3664,
      "retra": 3665,
      "rândul": 3666,
      "blog": 3667,
      "consil": 3668,
      "facut": 3669,
      "suprafa": 3670,
      "Camp": 3671,
      "obținut": 3672,
      "ajută": 3673,
      "##ințe": 3674,
      "devine": 3675,
      "##ferință": 3676,
      "conta": 3677,
      "trafic": 3678,
      "cuvânt": 3679,
      "Județean": 3680,
      "CS": 3681,
      "duc": 3682,
      "altor": 3683,
      "înde": 3684,
      "datele": 3685,
      "cazuri": 3686,
      "##OT": 3687,
      "##oria": 3688,
      "senti": 3689,
      "fix": 3690,
      "##țit": 3691,
      "##ET": 3692,
      "centrul": 3693,
      "##ruia": 3694,
      "##och": 3695,
      "##hid": 3696,
      "45": 3697,
      "##ibli": 3698,
      "def": 3699,
      "lovit": 3700,
      "disponi": 3701,
      "școală": 3702,
      "tân": 3703,
      "pas": 3704,
      "obțin": 3705,
      "specific": 3706,
      "Are": 3707,
      "cheltuie": 3708,
      "##atei": 3709,
      "go": 3710,
      "gru": 3711,
      "ascun": 3712,
      "##ilv": 3713,
      "##cine": 3714,
      "Dis": 3715,
      "experiență": 3716,
      "cru": 3717,
      "Pen": 3718,
      "##arii": 3719,
      "surprin": 3720,
      "ferici": 3721,
      "Ul": 3722,
      "pră": 3723,
      "conda": 3724,
      "##șu": 3725,
      "adresa": 3726,
      "vorbesc": 3727,
      "and": 3728,
      "deb": 3729,
      "Conform": 3730,
      "ier": 3731,
      "speciale": 3732,
      "##iciile": 3733,
      "execut": 3734,
      "individu": 3735,
      "##ăn": 3736,
      "demonst": 3737,
      "zilele": 3738,
      "coa": 3739,
      "Daca": 3740,
      "persoanelor": 3741,
      "jurn": 3742,
      "lista": 3743,
      "##ducerea": 3744,
      "##indu": 3745,
      "vrem": 3746,
      "spate": 3747,
      "Ești": 3748,
      "Cra": 3749,
      "închei": 3750,
      "##mise": 3751,
      "Ital": 3752,
      "##riere": 3753,
      "presă": 3754,
      "statele": 3755,
      "căci": 3756,
      "tineri": 3757,
      "plân": 3758,
      "##struct": 3759,
      "produsele": 3760,
      "##ational": 3761,
      "specifice": 3762,
      "victi": 3763,
      "##ciun": 3764,
      "##nța": 3765,
      "Col": 3766,
      "##âmbătă": 3767,
      "atâ": 3768,
      "înfiin": 3769,
      "##rații": 3770,
      "misi": 3771,
      "##urg": 3772,
      "antren": 3773,
      "##ph": 3774,
      "80": 3775,
      "zil": 3776,
      "##tile": 3777,
      "web": 3778,
      "Vor": 3779,
      "edit": 3780,
      "##cțiunea": 3781,
      "For": 3782,
      "căsători": 3783,
      "log": 3784,
      "acele": 3785,
      "apărut": 3786,
      "format": 3787,
      "Națională": 3788,
      "##alizate": 3789,
      "##ilib": 3790,
      "zice": 3791,
      "##tenți": 3792,
      "##atura": 3793,
      "înțeles": 3794,
      "trebuit": 3795,
      "Sc": 3796,
      "person": 3797,
      "mers": 3798,
      "##apte": 3799,
      "procedu": 3800,
      "George": 3801,
      "aliment": 3802,
      "ince": 3803,
      "##fan": 3804,
      "##────": 3805,
      "##stei": 3806,
      "referitoare": 3807,
      "articole": 3808,
      "risc": 3809,
      "Până": 3810,
      "##țională": 3811,
      "fri": 3812,
      "intele": 3813,
      "Cole": 3814,
      "fal": 3815,
      "electron": 3816,
      "mașină": 3817,
      "săptămână": 3818,
      "196": 3819,
      "programul": 3820,
      "cărți": 3821,
      "Vla": 3822,
      "Însă": 3823,
      "##rită": 3824,
      "Rusia": 3825,
      "Sup": 3826,
      "exa": 3827,
      "noua": 3828,
      "Ara": 3829,
      "##ceava": 3830,
      "Isus": 3831,
      "##zând": 3832,
      "deveni": 3833,
      "stân": 3834,
      "ameste": 3835,
      "cure": 3836,
      "##mit": 3837,
      "copilul": 3838,
      "##omet": 3839,
      "Timișoara": 3840,
      "Chișină": 3841,
      "Tri": 3842,
      "câștigat": 3843,
      "Biserica": 3844,
      "Maria": 3845,
      "medie": 3846,
      "noul": 3847,
      "90": 3848,
      "câți": 3849,
      "##șov": 3850,
      "##ich": 3851,
      "renun": 3852,
      "sport": 3853,
      "participat": 3854,
      "Avem": 3855,
      "Ori": 3856,
      "ent": 3857,
      "##lam": 3858,
      "Suceava": 3859,
      "ridicat": 3860,
      "viole": 3861,
      "Sol": 3862,
      "conține": 3863,
      "spatele": 3864,
      "##itară": 3865,
      "lună": 3866,
      "##dente": 3867,
      "întoarce": 3868,
      "dob": 3869,
      "bal": 3870,
      "cab": 3871,
      "practic": 3872,
      "uneori": 3873,
      "greutate": 3874,
      "bile": 3875,
      "permis": 3876,
      "lipsa": 3877,
      "crezi": 3878,
      "##lare": 3879,
      "##oasa": 3880,
      "omului": 3881,
      "media": 3882,
      "##nește": 3883,
      "He": 3884,
      "cercetă": 3885,
      "vineri": 3886,
      "vigoare": 3887,
      "##terioare": 3888,
      "##male": 3889,
      "credit": 3890,
      "Guvernului": 3891,
      "veni": 3892,
      "noaptea": 3893,
      "insul": 3894,
      "##sile": 3895,
      "engle": 3896,
      "interven": 3897,
      "Naționale": 3898,
      "fotbal": 3899,
      "##rol": 3900,
      "vremea": 3901,
      "clas": 3902,
      "mecan": 3903,
      "celelalte": 3904,
      "cură": 3905,
      "##AC": 3906,
      "##omen": 3907,
      "##ntului": 3908,
      "Spe": 3909,
      "așe": 3910,
      "top": 3911,
      "Centrul": 3912,
      "recunos": 3913,
      "cursul": 3914,
      "elimin": 3915,
      "Ph": 3916,
      "internaționale": 3917,
      "păt": 3918,
      "Agen": 3919,
      "recomandă": 3920,
      "dul": 3921,
      "ocazia": 3922,
      "câștig": 3923,
      "acțiune": 3924,
      "temperat": 3925,
      "istoria": 3926,
      "fen": 3927,
      "kil": 3928,
      "##veghe": 3929,
      "##orat": 3930,
      "Exp": 3931,
      "persoana": 3932,
      "Flori": 3933,
      "imo": 3934,
      "##rării": 3935,
      "bucă": 3936,
      "##dis": 3937,
      "##tia": 3938,
      "Uniunea": 3939,
      "fiecă": 3940,
      "##iga": 3941,
      "pără": 3942,
      "doa": 3943,
      "Administ": 3944,
      "ultimii": 3945,
      "##iața": 3946,
      "concent": 3947,
      "coordon": 3948,
      "lungul": 3949,
      "##ket": 3950,
      "Suntem": 3951,
      "Sta": 3952,
      "economice": 3953,
      "Mir": 3954,
      "european": 3955,
      "trebuia": 3956,
      "operați": 3957,
      "##EN": 3958,
      "Franța": 3959,
      "ajung": 3960,
      "situat": 3961,
      "plin": 3962,
      "eliber": 3963,
      "statul": 3964,
      "zilei": 3965,
      "pregăt": 3966,
      "jucat": 3967,
      "evenimente": 3968,
      "miliarde": 3969,
      "importantă": 3970,
      "mand": 3971,
      "certific": 3972,
      "Alexandru": 3973,
      "hid": 3974,
      "modern": 3975,
      "viitoare": 3976,
      "profesi": 3977,
      "Facebook": 3978,
      "Președintele": 3979,
      "naturale": 3980,
      "70": 3981,
      "Gener": 3982,
      "sănăt": 3983,
      "Pla": 3984,
      "mulțum": 3985,
      "inv": 3986,
      "##ens": 3987,
      "schimbă": 3988,
      "indiferent": 3989,
      "##irii": 3990,
      "uit": 3991,
      "mâna": 3992,
      "##end": 3993,
      "##itudine": 3994,
      "Statele": 3995,
      "prel": 3996,
      "română": 3997,
      "rolul": 3998,
      "We": 3999,
      "oferit": 4000,
      "Voi": 4001,
      "filme": 4002,
      "noroc": 4003,
      "191": 4004,
      "Hot": 4005,
      "client": 4006,
      "Roman": 4007,
      "Universitatea": 4008,
      "Luc": 4009,
      "Sib": 4010,
      "cup": 4011,
      "##ologic": 4012,
      "legii": 4013,
      "##ong": 4014,
      "pagina": 4015,
      "competi": 4016,
      "susținut": 4017,
      "Oamen": 4018,
      "stabilit": 4019,
      "##chet": 4020,
      "menține": 4021,
      "sediul": 4022,
      "apre": 4023,
      "citit": 4024,
      "##stră": 4025,
      "##ficarea": 4026,
      "gata": 4027,
      "urgență": 4028,
      "##anele": 4029,
      "spunea": 4030,
      "transmite": 4031,
      "##orie": 4032,
      "culoare": 4033,
      "oare": 4034,
      "##erve": 4035,
      "străin": 4036,
      "băie": 4037,
      "##SC": 4038,
      "internațional": 4039,
      "foc": 4040,
      "exprim": 4041,
      "San": 4042,
      "##zător": 4043,
      "faceți": 4044,
      "esenți": 4045,
      "feric": 4046,
      "Online": 4047,
      "tatăl": 4048,
      "Organ": 4049,
      "vârsta": 4050,
      "amb": 4051,
      "deloc": 4052,
      "##vâr": 4053,
      "pui": 4054,
      "##iri": 4055,
      "##ibliote": 4056,
      "Sfânt": 4057,
      "teat": 4058,
      "Constantin": 4059,
      "ultimele": 4060,
      "obiectiv": 4061,
      "munca": 4062,
      "##îr": 4063,
      "##ureș": 4064,
      "Casa": 4065,
      "științi": 4066,
      "detalii": 4067,
      "##cile": 4068,
      "împăr": 4069,
      "##tică": 4070,
      "##ove": 4071,
      "ideea": 4072,
      "înso": 4073,
      "studii": 4074,
      "îndră": 4075,
      "teme": 4076,
      "##ceva": 4077,
      "remar": 4078,
      "##stică": 4079,
      "##inat": 4080,
      "opt": 4081,
      "curând": 4082,
      "2004": 4083,
      "ceil": 4084,
      "fiul": 4085,
      "Bul": 4086,
      "mână": 4087,
      "ine": 4088,
      "##uită": 4089,
      "uman": 4090,
      "micro": 4091,
      "Gal": 4092,
      "abia": 4093,
      "alți": 4094,
      "reprezenta": 4095,
      "include": 4096,
      "condamn": 4097,
      "inca": 4098,
      "Stat": 4099,
      "produselor": 4100,
      "##terne": 4101,
      "protecție": 4102,
      "ii": 4103,
      "facil": 4104,
      "Public": 4105,
      "##rael": 4106,
      "înl": 4107,
      "##ipul": 4108,
      "##torii": 4109,
      "pil": 4110,
      "normal": 4111,
      "Medic": 4112,
      "conclu": 4113,
      "##lului": 4114,
      "parcursul": 4115,
      "impact": 4116,
      "Parlamentului": 4117,
      "##ARE": 4118,
      "gândit": 4119,
      "##umat": 4120,
      "##aris": 4121,
      "dreapta": 4122,
      "Sub": 4123,
      "##tu": 4124,
      "##ple": 4125,
      "pan": 4126,
      "Sch": 4127,
      "familiei": 4128,
      "pana": 4129,
      "Parti": 4130,
      "antre": 4131,
      "Dez": 4132,
      "Târ": 4133,
      "lansat": 4134,
      "implement": 4135,
      "combin": 4136,
      "##stele": 4137,
      "##rip": 4138,
      "opți": 4139,
      "Dra": 4140,
      "moartea": 4141,
      "festiv": 4142,
      "camera": 4143,
      "avanta": 4144,
      "Ev": 4145,
      "coop": 4146,
      "lasă": 4147,
      "##rus": 4148,
      "Cla": 4149,
      "##icle": 4150,
      "Chișinău": 4151,
      "rid": 4152,
      "front": 4153,
      "##dici": 4154,
      "funda": 4155,
      "celeb": 4156,
      "##ieni": 4157,
      "prece": 4158,
      "serviciile": 4159,
      "##to": 4160,
      "director": 4161,
      "senz": 4162,
      "Știi": 4163,
      "studiu": 4164,
      "dai": 4165,
      "lungi": 4166,
      "umb": 4167,
      "petrece": 4168,
      "##cțiile": 4169,
      "mașina": 4170,
      "195": 4171,
      "Sing": 4172,
      "suficient": 4173,
      "Fiecare": 4174,
      "##AM": 4175,
      "Nord": 4176,
      "##ficial": 4177,
      "##ity": 4178,
      "##urt": 4179,
      "zece": 4180,
      "##itale": 4181,
      "adopt": 4182,
      "Brașov": 4183,
      "echipă": 4184,
      "##ker": 4185,
      "românești": 4186,
      "Liv": 4187,
      "Cră": 4188,
      "##arat": 4189,
      "Cite": 4190,
      "##IV": 4191,
      "##cie": 4192,
      "tratament": 4193,
      "urile": 4194,
      "Înt": 4195,
      "##zătoare": 4196,
      "gara": 4197,
      "aparta": 4198,
      "Muze": 4199,
      "Despre": 4200,
      "Man": 4201,
      "altceva": 4202,
      "Centr": 4203,
      "##zată": 4204,
      "miercuri": 4205,
      "flori": 4206,
      "publicat": 4207,
      "Guvernul": 4208,
      "Rea": 4209,
      "repar": 4210,
      "spital": 4211,
      "Ște": 4212,
      "##all": 4213,
      "ulei": 4214,
      "seară": 4215,
      "acțiuni": 4216,
      "deschi": 4217,
      "necesară": 4218,
      "2000": 4219,
      "oper": 4220,
      "joi": 4221,
      "##mine": 4222,
      "încu": 4223,
      "stau": 4224,
      "fu": 4225,
      "##ariu": 4226,
      "frumoase": 4227,
      "confru": 4228,
      "##itarea": 4229,
      "fete": 4230,
      "test": 4231,
      "Instit": 4232,
      "Sig": 4233,
      "##dact": 4234,
      "crezut": 4235,
      "altul": 4236,
      "Inform": 4237,
      "##relor": 4238,
      "singura": 4239,
      "consecin": 4240,
      "dețin": 4241,
      "tul": 4242,
      "adres": 4243,
      "descoperit": 4244,
      "refu": 4245,
      "##stian": 4246,
      "duminică": 4247,
      "##ideoc": 4248,
      "opin": 4249,
      "del": 4250,
      "32": 4251,
      "##pri": 4252,
      "##reme": 4253,
      "##onibile": 4254,
      "fara": 4255,
      "îmbră": 4256,
      "Perso": 4257,
      "36": 4258,
      "domeniu": 4259,
      "elector": 4260,
      "lupta": 4261,
      "execu": 4262,
      "atenția": 4263,
      "vreodată": 4264,
      "regulă": 4265,
      "vreun": 4266,
      "potenți": 4267,
      "separ": 4268,
      "Municip": 4269,
      "concer": 4270,
      "urmat": 4271,
      "buna": 4272,
      "ministrul": 4273,
      "negru": 4274,
      "sufletul": 4275,
      "imagine": 4276,
      "tren": 4277,
      "##iești": 4278,
      "Ber": 4279,
      "##șel": 4280,
      "aminti": 4281,
      "așteaptă": 4282,
      "lice": 4283,
      "marți": 4284,
      "##ânte": 4285,
      "Ag": 4286,
      "calific": 4287,
      "Știu": 4288,
      "ieri": 4289,
      "caf": 4290,
      "Pet": 4291,
      "american": 4292,
      "continua": 4293,
      "mediul": 4294,
      "păre": 4295,
      "națională": 4296,
      "sarc": 4297,
      "##ordin": 4298,
      "situație": 4299,
      "șo": 4300,
      "Părin": 4301,
      "refle": 4302,
      "prieteni": 4303,
      "tari": 4304,
      "Vasile": 4305,
      "sud": 4306,
      "disponibile": 4307,
      "##tească": 4308,
      "interesa": 4309,
      "300": 4310,
      "##uncii": 4311,
      "PN": 4312,
      "Poli": 4313,
      "aplica": 4314,
      "##gele": 4315,
      "recen": 4316,
      "picioare": 4317,
      "##ideoclip": 4318,
      "##sibile": 4319,
      "##atie": 4320,
      "Doamne": 4321,
      "##rina": 4322,
      "gaz": 4323,
      "Festiv": 4324,
      "##rește": 4325,
      "stabile": 4326,
      "##țată": 4327,
      "aprobarea": 4328,
      "conflic": 4329,
      "pal": 4330,
      "dreptate": 4331,
      "caracterist": 4332,
      "transmis": 4333,
      "semnat": 4334,
      "mini": 4335,
      "##ogra": 4336,
      "vir": 4337,
      "modele": 4338,
      "club": 4339,
      "##iene": 4340,
      "##rom": 4341,
      "##alist": 4342,
      "Imp": 4343,
      "încearcă": 4344,
      "comporta": 4345,
      "medicale": 4346,
      "cercetare": 4347,
      "calea": 4348,
      "foto": 4349,
      "starea": 4350,
      "Iul": 4351,
      "internet": 4352,
      "pom": 4353,
      "buni": 4354,
      "##pele": 4355,
      "monitori": 4356,
      "folosite": 4357,
      "Soci": 4358,
      "##cătorii": 4359,
      "##ny": 4360,
      "condus": 4361,
      "mărturi": 4362,
      "frumoasă": 4363,
      "##lax": 4364,
      "decizie": 4365,
      "Lui": 4366,
      "VI": 4367,
      "restul": 4368,
      "grădin": 4369,
      "Aust": 4370,
      "fund": 4371,
      "##umă": 4372,
      "##loace": 4373,
      "##th": 4374,
      "viata": 4375,
      "Har": 4376,
      "transfer": 4377,
      "arătat": 4378,
      "copilului": 4379,
      "Române": 4380,
      "spațiu": 4381,
      "dragoste": 4382,
      "întâi": 4383,
      "interv": 4384,
      "dorm": 4385,
      "##mos": 4386,
      "capul": 4387,
      "recunoaște": 4388,
      "##ize": 4389,
      "dip": 4390,
      "Italia": 4391,
      "Crăciun": 4392,
      "ment": 4393,
      "participa": 4394,
      "sala": 4395,
      "istorie": 4396,
      "proced": 4397,
      "societății": 4398,
      "compon": 4399,
      "##undă": 4400,
      "Republicii": 4401,
      "decizia": 4402,
      "##ont": 4403,
      "lite": 4404,
      "vorbim": 4405,
      "##tiche": 4406,
      "avans": 4407,
      "funcția": 4408,
      "propriu": 4409,
      "perspe": 4410,
      "##urată": 4411,
      "teritoriul": 4412,
      "personale": 4413,
      "vice": 4414,
      "##itorilor": 4415,
      "##ierii": 4416,
      "fizice": 4417,
      "băut": 4418,
      "##nis": 4419,
      "##lii": 4420,
      "financiar": 4421,
      "##iază": 4422,
      "religi": 4423,
      "Cun": 4424,
      "Th": 4425,
      "Comite": 4426,
      "permane": 4427,
      "Produ": 4428,
      "##răm": 4429,
      "cărora": 4430,
      "românesc": 4431,
      "##istat": 4432,
      "##luri": 4433,
      "fim": 4434,
      "cartea": 4435,
      "echilib": 4436,
      "aspe": 4437,
      "parcă": 4438,
      "calitatea": 4439,
      "încăr": 4440,
      "Îți": 4441,
      "înve": 4442,
      "dot": 4443,
      "Ade": 4444,
      "aduc": 4445,
      "##cțiune": 4446,
      "simbol": 4447,
      "##rez": 4448,
      "păcate": 4449,
      "plăcut": 4450,
      "##oturi": 4451,
      "org": 4452,
      "2005": 4453,
      "schimbat": 4454,
      "vină": 4455,
      "moarte": 4456,
      "##ortun": 4457,
      "urmări": 4458,
      "modificarea": 4459,
      "degra": 4460,
      "supraveghe": 4461,
      "Pot": 4462,
      "is": 4463,
      "strada": 4464,
      "acelea": 4465,
      "măn": 4466,
      "III": 4467,
      "##ționat": 4468,
      "##ree": 4469,
      "socială": 4470,
      "poată": 4471,
      "problemele": 4472,
      "##colo": 4473,
      "##omin": 4474,
      "preluc": 4475,
      "##cun": 4476,
      "rețele": 4477,
      "serviciilor": 4478,
      "recent": 4479,
      "prevăzut": 4480,
      "clip": 4481,
      "Pal": 4482,
      "mijloace": 4483,
      "ministru": 4484,
      "Ima": 4485,
      "ceilalți": 4486,
      "##reia": 4487,
      "Alba": 4488,
      "Ziua": 4489,
      "sensul": 4490,
      "Brit": 4491,
      "193": 4492,
      "lucrări": 4493,
      "infor": 4494,
      "##by": 4495,
      "##eamă": 4496,
      "dege": 4497,
      "Vrei": 4498,
      "major": 4499,
      "Je": 4500,
      "##șă": 4501,
      "33": 4502,
      "companiei": 4503,
      "depune": 4504,
      "suport": 4505,
      "##ENT": 4506,
      "șapte": 4507,
      "Can": 4508,
      "exerci": 4509,
      "case": 4510,
      "propria": 4511,
      "cado": 4512,
      "##nică": 4513,
      "mer": 4514,
      "##ya": 4515,
      "adân": 4516,
      "bate": 4517,
      "str": 4518,
      "ling": 4519,
      "Servici": 4520,
      "informațiile": 4521,
      "##tește": 4522,
      "magazin": 4523,
      "potriv": 4524,
      "tipul": 4525,
      "aveam": 4526,
      "Anunț": 4527,
      "Bal": 4528,
      "muzică": 4529,
      "responsabil": 4530,
      "##itorii": 4531,
      "cone": 4532,
      "aveau": 4533,
      "întreprinde": 4534,
      "bătrân": 4535,
      "##ghel": 4536,
      "minte": 4537,
      "benefici": 4538,
      "stimul": 4539,
      "vala": 4540,
      "sînt": 4541,
      "##pân": 4542,
      "##orin": 4543,
      "2001": 4544,
      "##hicule": 4545,
      "##ientă": 4546,
      "dimineață": 4547,
      "lunii": 4548,
      "dura": 4549,
      "ediție": 4550,
      "##ctează": 4551,
      "##oritate": 4552,
      "câțiva": 4553,
      "avoc": 4554,
      "Cara": 4555,
      "##oles": 4556,
      "##onat": 4557,
      "idee": 4558,
      "terminat": 4559,
      "dezbate": 4560,
      "##nament": 4561,
      "cent": 4562,
      "ambele": 4563,
      "Tele": 4564,
      "##itect": 4565,
      "##cle": 4566,
      "Vlad": 4567,
      "suplimentare": 4568,
      "revi": 4569,
      "##zile": 4570,
      "impo": 4571,
      "##ws": 4572,
      "##oh": 4573,
      "##ju": 4574,
      "membrii": 4575,
      "constat": 4576,
      "cro": 4577,
      "Amb": 4578,
      "făcute": 4579,
      "Acestea": 4580,
      "Rap": 4581,
      "##arilor": 4582,
      "ON": 4583,
      "##nesc": 4584,
      "sâmbătă": 4585,
      "Fot": 4586,
      "##tent": 4587,
      "##ek": 4588,
      "##ița": 4589,
      "SE": 4590,
      "Danie": 4591,
      "prezența": 4592,
      "##gia": 4593,
      "##oneze": 4594,
      "rezultatele": 4595,
      "Andrei": 4596,
      "##10": 4597,
      "economică": 4598,
      "dorit": 4599,
      "concu": 4600,
      "Sfântul": 4601,
      "povestea": 4602,
      "Nap": 4603,
      "##resc": 4604,
      "##dan": 4605,
      "##tesc": 4606,
      "##pei": 4607,
      "gust": 4608,
      "Rob": 4609,
      "scoate": 4610,
      "Curtea": 4611,
      "##sive": 4612,
      "Ep": 4613,
      "sh": 4614,
      "##cent": 4615,
      "domen": 4616,
      "Cat": 4617,
      "##mon": 4618,
      "comune": 4619,
      "Iată": 4620,
      "singurul": 4621,
      "conșt": 4622,
      "numeroase": 4623,
      "##asa": 4624,
      "părinții": 4625,
      "Val": 4626,
      "Sibiu": 4627,
      "ieșit": 4628,
      "cunosc": 4629,
      "##aturi": 4630,
      "Dezvol": 4631,
      "compania": 4632,
      "conțin": 4633,
      "comanda": 4634,
      "centru": 4635,
      "înaintea": 4636,
      "categoria": 4637,
      "##umb": 4638,
      "##tatul": 4639,
      "##RO": 4640,
      "juca": 4641,
      "##anei": 4642,
      "secol": 4643,
      "##tăm": 4644,
      "esti": 4645,
      "cauz": 4646,
      "elemente": 4647,
      "flu": 4648,
      "##rand": 4649,
      "neîn": 4650,
      "lucrează": 4651,
      "rețea": 4652,
      "regulament": 4653,
      "chest": 4654,
      "Unde": 4655,
      "Econom": 4656,
      "promo": 4657,
      "usc": 4658,
      "adoles": 4659,
      "grav": 4660,
      "##zați": 4661,
      "realizarea": 4662,
      "cic": 4663,
      "SA": 4664,
      "##IS": 4665,
      "##sești": 4666,
      "salv": 4667,
      "răsp": 4668,
      "tinere": 4669,
      "creșt": 4670,
      "companie": 4671,
      "legea": 4672,
      "but": 4673,
      "sezon": 4674,
      "US": 4675,
      "##șește": 4676,
      "germ": 4677,
      "alco": 4678,
      "##ware": 4679,
      "imagini": 4680,
      "unic": 4681,
      "Tru": 4682,
      "manage": 4683,
      "ecran": 4684,
      "##site": 4685,
      "jur": 4686,
      "emisi": 4687,
      "##elor": 4688,
      "chesti": 4689,
      "guver": 4690,
      "##ptul": 4691,
      "constituie": 4692,
      "Împ": 4693,
      "știm": 4694,
      "sprijinul": 4695,
      "##sch": 4696,
      "##nătății": 4697,
      "baie": 4698,
      "##cel": 4699,
      "comerciale": 4700,
      "Vezi": 4701,
      "toa": 4702,
      "Alb": 4703,
      "afirmat": 4704,
      "nen": 4705,
      "menționat": 4706,
      "inov": 4707,
      "Asi": 4708,
      "poartă": 4709,
      "Bla": 4710,
      "ciud": 4711,
      "bur": 4712,
      "inspi": 4713,
      "##curile": 4714,
      "atenție": 4715,
      "prețul": 4716,
      "Academ": 4717,
      "##ky": 4718,
      "##aliști": 4719,
      "Asociația": 4720,
      "ret": 4721,
      "##tați": 4722,
      "##xx": 4723,
      "abord": 4724,
      "Tom": 4725,
      "dig": 4726,
      "vari": 4727,
      "adec": 4728,
      "rugăci": 4729,
      "##riu": 4730,
      "camere": 4731,
      "Tine": 4732,
      "##pere": 4733,
      "Constitu": 4734,
      "oportun": 4735,
      "completă": 4736,
      "##erva": 4737,
      "hip": 4738,
      "drepturile": 4739,
      "relax": 4740,
      "realizate": 4741,
      "uitat": 4742,
      "orașe": 4743,
      "##ativa": 4744,
      "Anul": 4745,
      "lumina": 4746,
      "Wil": 4747,
      "alba": 4748,
      "##buz": 4749,
      "fenomen": 4750,
      "orie": 4751,
      "Mart": 4752,
      "As": 4753,
      "civil": 4754,
      "Ab": 4755,
      "##aru": 4756,
      "informat": 4757,
      "Pl": 4758,
      "excepția": 4759,
      "încheiat": 4760,
      "Vin": 4761,
      "non": 4762,
      "Minist": 4763,
      "Bun": 4764,
      "##erul": 4765,
      "doctor": 4766,
      "stea": 4767,
      "practică": 4768,
      "expre": 4769,
      "09": 4770,
      "trage": 4771,
      "sărbători": 4772,
      "interne": 4773,
      "mijlocul": 4774,
      "design": 4775,
      "07": 4776,
      "sectorul": 4777,
      "material": 4778,
      "expozi": 4779,
      "##cării": 4780,
      "elabor": 4781,
      "bugetul": 4782,
      "domnul": 4783,
      "##tura": 4784,
      "situații": 4785,
      "Sud": 4786,
      "lăs": 4787,
      "##IL": 4788,
      "muzic": 4789,
      "Justi": 4790,
      "Totuși": 4791,
      "##rest": 4792,
      "verde": 4793,
      "##ctelor": 4794,
      "##atelor": 4795,
      "Primul": 4796,
      "fiindcă": 4797,
      "stic": 4798,
      "adul": 4799,
      "candid": 4800,
      "##samb": 4801,
      "##ld": 4802,
      "câmp": 4803,
      "Gh": 4804,
      "Prim": 4805,
      "tânăr": 4806,
      "##oaie": 4807,
      "joacă": 4808,
      "zah": 4809,
      "poziția": 4810,
      "învățat": 4811,
      "Teat": 4812,
      "Ucra": 4813,
      "gran": 4814,
      "##iscop": 4815,
      "investiții": 4816,
      "companii": 4817,
      "ză": 4818,
      "ins": 4819,
      "Ministerului": 4820,
      "##ilia": 4821,
      "trase": 4822,
      "anterior": 4823,
      "##chip": 4824,
      "Ter": 4825,
      "mesaj": 4826,
      "##utului": 4827,
      "respective": 4828,
      "##ff": 4829,
      "mort": 4830,
      "tau": 4831,
      "promis": 4832,
      "dorește": 4833,
      "plină": 4834,
      "##torul": 4835,
      "mondial": 4836,
      "##ida": 4837,
      "țările": 4838,
      "Sen": 4839,
      "totală": 4840,
      "Bru": 4841,
      "##tată": 4842,
      "umane": 4843,
      "procu": 4844,
      "definit": 4845,
      "funcționează": 4846,
      "##IM": 4847,
      "pasa": 4848,
      "sute": 4849,
      "##roport": 4850,
      "##ghi": 4851,
      "##vieț": 4852,
      "##UN": 4853,
      "##ovo": 4854,
      "averti": 4855,
      "##cătorul": 4856,
      "##onului": 4857,
      "Cro": 4858,
      "prepar": 4859,
      "aur": 4860,
      "mit": 4861,
      "legi": 4862,
      "creștin": 4863,
      "Sper": 4864,
      "timpului": 4865,
      "Tată": 4866,
      "##ack": 4867,
      "interz": 4868,
      "căruia": 4869,
      "redu": 4870,
      "##idă": 4871,
      "##xel": 4872,
      "34": 4873,
      "reglement": 4874,
      "folosesc": 4875,
      "deosebit": 4876,
      "Cal": 4877,
      "rezultat": 4878,
      "soare": 4879,
      "Art": 4880,
      "realitate": 4881,
      "##lex": 4882,
      "membri": 4883,
      "menționate": 4884,
      "##usine": 4885,
      "##ărb": 4886,
      "##ATE": 4887,
      "Adrian": 4888,
      "temei": 4889,
      "##spector": 4890,
      "uită": 4891,
      "##ntare": 4892,
      "Primăria": 4893,
      "AN": 4894,
      "Sco": 4895,
      "organizarea": 4896,
      "Fund": 4897,
      "ordine": 4898,
      "întrucât": 4899,
      "consol": 4900,
      "Edit": 4901,
      "agre": 4902,
      "##rimoni": 4903,
      "##odul": 4904,
      "Stu": 4905,
      "fostul": 4906,
      "opri": 4907,
      "corup": 4908,
      "genul": 4909,
      "întâlnit": 4910,
      "mergem": 4911,
      "Mama": 4912,
      "Încă": 4913,
      "Paris": 4914,
      "eva": 4915,
      "întreg": 4916,
      "##ben": 4917,
      "##sească": 4918,
      "înregistrat": 4919,
      "Anunțuri": 4920,
      "##rări": 4921,
      "##nești": 4922,
      "comună": 4923,
      "închisoare": 4924,
      "suma": 4925,
      "Gra": 4926,
      "considerat": 4927,
      "01": 4928,
      "lucrat": 4929,
      "##arele": 4930,
      "Poliți": 4931,
      "fată": 4932,
      "mone": 4933,
      "înăl": 4934,
      "scăzut": 4935,
      "##anului": 4936,
      "trecută": 4937,
      "##ologia": 4938,
      "îndepăr": 4939,
      "lat": 4940,
      "vadă": 4941,
      "frecven": 4942,
      "spect": 4943,
      "Aș": 4944,
      "##ărare": 4945,
      "John": 4946,
      "aplicarea": 4947,
      "mâine": 4948,
      "##cov": 4949,
      "dispoziție": 4950,
      "gestion": 4951,
      "dr": 4952,
      "##ărilor": 4953,
      "întrebări": 4954,
      "##wn": 4955,
      "IN": 4956,
      "##suri": 4957,
      "##măn": 4958,
      "UN": 4959,
      "##otă": 4960,
      "tăi": 4961,
      "întors": 4962,
      "utilizate": 4963,
      "##OL": 4964,
      "##50": 4965,
      "distribu": 4966,
      "catre": 4967,
      "dimineața": 4968,
      "die": 4969,
      "femeile": 4970,
      "bărbați": 4971,
      "Ver": 4972,
      "##urate": 4973,
      "intervi": 4974,
      "Mircea": 4975,
      "RE": 4976,
      "cameră": 4977,
      "lumină": 4978,
      "investig": 4979,
      "cumpără": 4980,
      "satis": 4981,
      "02": 4982,
      "plim": 4983,
      "soția": 4984,
      "##wa": 4985,
      "Ștefan": 4986,
      "##olit": 4987,
      "nere": 4988,
      "interiorul": 4989,
      "clin": 4990,
      "soluție": 4991,
      "prins": 4992,
      "vorbi": 4993,
      "Radu": 4994,
      "televizi": 4995,
      "##ogle": 4996,
      "bolna": 4997,
      "producție": 4998,
      "provin": 4999,
      "controlul": 5000,
      "schimba": 5001,
      "##alia": 5002,
      "împrum": 5003,
      "##năsti": 5004,
      "acordat": 5005,
      "aste": 5006,
      "##ction": 5007,
      "##atia": 5008,
      "2003": 5009,
      "mașini": 5010,
      "PNL": 5011,
      "dans": 5012,
      "anexa": 5013,
      "##cilor": 5014,
      "##osc": 5015,
      "învin": 5016,
      "Transilv": 5017,
      "oa": 5018,
      "##anților": 5019,
      "pari": 5020,
      "Cât": 5021,
      "ulterior": 5022,
      "turne": 5023,
      "culori": 5024,
      "##ografie": 5025,
      "##bii": 5026,
      "las": 5027,
      "soluții": 5028,
      "plane": 5029,
      "Dragnea": 5030,
      "încerca": 5031,
      "privat": 5032,
      "##sivă": 5033,
      "chim": 5034,
      "solicită": 5035,
      "cui": 5036,
      "##landa": 5037,
      "capăt": 5038,
      "active": 5039,
      "##apa": 5040,
      "forme": 5041,
      "limite": 5042,
      "##ficare": 5043,
      "comuna": 5044,
      "interior": 5045,
      "discut": 5046,
      "##hova": 5047,
      "fonduri": 5048,
      "utilizare": 5049,
      "##nte": 5050,
      "ump": 5051,
      "cererea": 5052,
      "mări": 5053,
      "##del": 5054,
      "Spune": 5055,
      "zbor": 5056,
      "Che": 5057,
      "durata": 5058,
      "femin": 5059,
      "##țate": 5060,
      "îndeplin": 5061,
      "Victor": 5062,
      "##scăr": 5063,
      "fundament": 5064,
      "găsesc": 5065,
      "##argă": 5066,
      "atent": 5067,
      "gh": 5068,
      "##igh": 5069,
      "natural": 5070,
      "credi": 5071,
      "##iver": 5072,
      "Sam": 5073,
      "industri": 5074,
      "2002": 5075,
      "plată": 5076,
      "Drept": 5077,
      "Oamenii": 5078,
      "##delor": 5079,
      "Neg": 5080,
      "lungă": 5081,
      "partener": 5082,
      "efectuate": 5083,
      "##ocurile": 5084,
      "acești": 5085,
      "distra": 5086,
      "recla": 5087,
      "##rem": 5088,
      "##pit": 5089,
      "##aliza": 5090,
      "tehnice": 5091,
      "##ologică": 5092,
      "dova": 5093,
      "păsă": 5094,
      "anche": 5095,
      "prefer": 5096,
      "partic": 5097,
      "##sor": 5098,
      "Israel": 5099,
      "exclusiv": 5100,
      "avion": 5101,
      "event": 5102,
      "##oti": 5103,
      "tranza": 5104,
      "frun": 5105,
      "anunță": 5106,
      "întreb": 5107,
      "răspunde": 5108,
      "cif": 5109,
      "Sti": 5110,
      "voia": 5111,
      "însemn": 5112,
      "presupune": 5113,
      "Mer": 5114,
      "fapte": 5115,
      "treaba": 5116,
      "##sem": 5117,
      "prietenii": 5118,
      "vii": 5119,
      "absolut": 5120,
      "Oh": 5121,
      "Fără": 5122,
      "##nți": 5123,
      "Eveni": 5124,
      "##ima": 5125,
      "instituții": 5126,
      "mulțumesc": 5127,
      "faptului": 5128,
      "altern": 5129,
      "propus": 5130,
      "decl": 5131,
      "America": 5132,
      "##ed": 5133,
      "##anțele": 5134,
      "##RL": 5135,
      "pericul": 5136,
      "orică": 5137,
      "lăsa": 5138,
      "lucra": 5139,
      "poti": 5140,
      "alimentare": 5141,
      "căreia": 5142,
      "##vid": 5143,
      "vând": 5144,
      "Inte": 5145,
      "text": 5146,
      "pra": 5147,
      "adop": 5148,
      "subiect": 5149,
      "bro": 5150,
      "ste": 5151,
      "omor": 5152,
      "viitorul": 5153,
      "decor": 5154,
      "##rig": 5155,
      "cafea": 5156,
      "Ți": 5157,
      "##inței": 5158,
      "##zelor": 5159,
      "societate": 5160,
      "atat": 5161,
      "mg": 5162,
      "plata": 5163,
      "circa": 5164,
      "##ondul": 5165,
      "stabilite": 5166,
      "tro": 5167,
      "##ctare": 5168,
      "desfășoară": 5169,
      "plante": 5170,
      "semin": 5171,
      "Bas": 5172,
      "vit": 5173,
      "Desc": 5174,
      "libe": 5175,
      "##ko": 5176,
      "##usiness": 5177,
      "##fuz": 5178,
      "##ierului": 5179,
      "supliment": 5180,
      "##imat": 5181,
      "##dență": 5182,
      "aci": 5183,
      "domnule": 5184,
      "MA": 5185,
      "favori": 5186,
      "##itorului": 5187,
      "capacitatea": 5188,
      "echipei": 5189,
      "Ceea": 5190,
      "conducerea": 5191,
      "campion": 5192,
      "cod": 5193,
      "Nă": 5194,
      "##RA": 5195,
      "aloc": 5196,
      "##lit": 5197,
      "economic": 5198,
      "Socie": 5199,
      "Legii": 5200,
      "profesor": 5201,
      "desemn": 5202,
      "energe": 5203,
      "##conj": 5204,
      "apel": 5205,
      "frumuse": 5206,
      "Nor": 5207,
      "plăt": 5208,
      "vizite": 5209,
      "##anțelor": 5210,
      "dipl": 5211,
      "înțeleg": 5212,
      "uita": 5213,
      "cm": 5214,
      "Educ": 5215,
      "ținut": 5216,
      "##tari": 5217,
      "AC": 5218,
      "Vom": 5219,
      "aflate": 5220,
      "Siste": 5221,
      "putin": 5222,
      "examen": 5223,
      "carne": 5224,
      "tipuri": 5225,
      "fier": 5226,
      "piele": 5227,
      "slă": 5228,
      "vorbește": 5229,
      "suflet": 5230,
      "alcool": 5231,
      "Organiz": 5232,
      "sportiv": 5233,
      "Est": 5234,
      "##înă": 5235,
      "programe": 5236,
      "##nescu": 5237,
      "China": 5238,
      "discip": 5239,
      "pron": 5240,
      "atmos": 5241,
      "articolului": 5242,
      "personaj": 5243,
      "##șesc": 5244,
      "##int": 5245,
      "card": 5246,
      "stăpân": 5247,
      "cari": 5248,
      "38": 5249,
      "arhitect": 5250,
      "Desig": 5251,
      "prezentate": 5252,
      "SC": 5253,
      "spațiul": 5254,
      "Feme": 5255,
      "##hicul": 5256,
      "conducere": 5257,
      "Bog": 5258,
      "secret": 5259,
      "fierb": 5260,
      "37": 5261,
      "mănân": 5262,
      "gal": 5263,
      "Polit": 5264,
      "preveni": 5265,
      "tera": 5266,
      "Iis": 5267,
      "judecată": 5268,
      "Bisericii": 5269,
      "corpul": 5270,
      "##po": 5271,
      "pace": 5272,
      "titlul": 5273,
      "brit": 5274,
      "##teze": 5275,
      "minun": 5276,
      "vară": 5277,
      "credinci": 5278,
      "##ovie": 5279,
      "pant": 5280,
      "românească": 5281,
      "Europei": 5282,
      "net": 5283,
      "victori": 5284,
      "##țeni": 5285,
      "Istori": 5286,
      "deas": 5287,
      "stoc": 5288,
      "##gred": 5289,
      "##dy": 5290,
      "##ruri": 5291,
      "protecția": 5292,
      "Liber": 5293,
      "activității": 5294,
      "glob": 5295,
      "Programul": 5296,
      "deasupra": 5297,
      "Astăzi": 5298,
      "grade": 5299,
      "extraordin": 5300,
      "mail": 5301,
      "##OP": 5302,
      "împie": 5303,
      "poze": 5304,
      "##omo": 5305,
      "Mit": 5306,
      "politici": 5307,
      "evident": 5308,
      "##uza": 5309,
      "Caut": 5310,
      "incer": 5311,
      "alegerile": 5312,
      "britan": 5313,
      "mediului": 5314,
      "sâr": 5315,
      "undeva": 5316,
      "##ill": 5317,
      "Vie": 5318,
      "cumva": 5319,
      "capital": 5320,
      "parlament": 5321,
      "Daniel": 5322,
      "grea": 5323,
      "live": 5324,
      "comunicare": 5325,
      "##ribuie": 5326,
      "volum": 5327,
      "făcută": 5328,
      "societatea": 5329,
      "treia": 5330,
      "ses": 5331,
      "cînd": 5332,
      "Ze": 5333,
      "supravieț": 5334,
      "standard": 5335,
      "Unul": 5336,
      "##ocol": 5337,
      "iti": 5338,
      "Gi": 5339,
      "AD": 5340,
      "48": 5341,
      "suprafață": 5342,
      "argu": 5343,
      "##matică": 5344,
      "crearea": 5345,
      "partid": 5346,
      "##log": 5347,
      "meta": 5348,
      "##alizată": 5349,
      "##rori": 5350,
      "eficient": 5351,
      "derul": 5352,
      "zeci": 5353,
      "##gră": 5354,
      "ben": 5355,
      "documente": 5356,
      "colo": 5357,
      "idei": 5358,
      "Îl": 5359,
      "spectacol": 5360,
      "Ben": 5361,
      "aștepta": 5362,
      "întune": 5363,
      "populației": 5364,
      "dispă": 5365,
      "##zentă": 5366,
      "sune": 5367,
      "conferin": 5368,
      "iubesc": 5369,
      "așteptă": 5370,
      "pul": 5371,
      "construit": 5372,
      "##get": 5373,
      "aler": 5374,
      "##ock": 5375,
      "Gabrie": 5376,
      "spună": 5377,
      "Paul": 5378,
      "apu": 5379,
      "voie": 5380,
      "întâr": 5381,
      "Gar": 5382,
      "Lond": 5383,
      "zilnic": 5384,
      "ileg": 5385,
      "evaluare": 5386,
      "mând": 5387,
      "##ube": 5388,
      "distanță": 5389,
      "Num": 5390,
      "Google": 5391,
      "hotăr": 5392,
      "jocul": 5393,
      "cuprinde": 5394,
      "gale": 5395,
      "succe": 5396,
      "son": 5397,
      "întrebat": 5398,
      "Vol": 5399,
      "Bot": 5400,
      "##stent": 5401,
      "##old": 5402,
      "##pen": 5403,
      "întâmpla": 5404,
      "Kos": 5405,
      "##uț": 5406,
      "mintea": 5407,
      "##EA": 5408,
      "fotografii": 5409,
      "duh": 5410,
      "##we": 5411,
      "utilizat": 5412,
      "puternică": 5413,
      "natură": 5414,
      "celei": 5415,
      "##tine": 5416,
      "mm": 5417,
      "garan": 5418,
      "cântă": 5419,
      "stiu": 5420,
      "artă": 5421,
      "Scri": 5422,
      "infe": 5423,
      "cazare": 5424,
      "##vate": 5425,
      "ilu": 5426,
      "multor": 5427,
      "ciuda": 5428,
      "##hannis": 5429,
      "oară": 5430,
      "magaz": 5431,
      "finalul": 5432,
      "accept": 5433,
      "adapt": 5434,
      "oc": 5435,
      "##itudinea": 5436,
      "##gnost": 5437,
      "educație": 5438,
      "dezvă": 5439,
      "##apă": 5440,
      "Prote": 5441,
      "##vintele": 5442,
      "clic": 5443,
      "08": 5444,
      "detali": 5445,
      "cunoscute": 5446,
      "Facul": 5447,
      "##sel": 5448,
      "##gorii": 5449,
      "Napoca": 5450,
      "AL": 5451,
      "Adică": 5452,
      "celule": 5453,
      "Poți": 5454,
      "recon": 5455,
      "diferi": 5456,
      "reducerea": 5457,
      "Ali": 5458,
      "Video": 5459,
      "amenaj": 5460,
      "momente": 5461,
      "fuse": 5462,
      "Liviu": 5463,
      "șeful": 5464,
      "subie": 5465,
      "plăti": 5466,
      "Prop": 5467,
      "##mpor": 5468,
      "europeană": 5469,
      "filmul": 5470,
      "deține": 5471,
      "studen": 5472,
      "atribu": 5473,
      "##erarea": 5474,
      "##sescu": 5475,
      "Regi": 5476,
      "##unerea": 5477,
      "depozit": 5478,
      "##zilor": 5479,
      "cheltuiel": 5480,
      "uni": 5481,
      "moldo": 5482,
      "##aliștii": 5483,
      "Proiectul": 5484,
      "Apro": 5485,
      "##sii": 5486,
      "##rid": 5487,
      "39": 5488,
      "înlocu": 5489,
      "192": 5490,
      "Orice": 5491,
      "##lav": 5492,
      "profit": 5493,
      "Turcia": 5494,
      "##tri": 5495,
      "David": 5496,
      "ast": 5497,
      "incen": 5498,
      "măsurile": 5499,
      "dialog": 5500,
      "rit": 5501,
      "Probabil": 5502,
      "odi": 5503,
      "bic": 5504,
      "achizițion": 5505,
      "considera": 5506,
      "##izate": 5507,
      "adesea": 5508,
      "hâr": 5509,
      "Mulț": 5510,
      "judici": 5511,
      "Sat": 5512,
      "profil": 5513,
      "bucur": 5514,
      "complic": 5515,
      "programului": 5516,
      "##ED": 5517,
      "curi": 5518,
      "influen": 5519,
      "05": 5520,
      "Uite": 5521,
      "considerare": 5522,
      "suge": 5523,
      "respi": 5524,
      "devreme": 5525,
      "apreci": 5526,
      "Dumit": 5527,
      "##stitu": 5528,
      "infrastruct": 5529,
      "margin": 5530,
      "decat": 5531,
      "Campion": 5532,
      "necon": 5533,
      "03": 5534,
      "legale": 5535,
      "kg": 5536,
      "##italul": 5537,
      "volunt": 5538,
      "Ana": 5539,
      "Ka": 5540,
      "surse": 5541,
      "rugăm": 5542,
      "ucis": 5543,
      "curent": 5544,
      "Hotel": 5545,
      "##pi": 5546,
      "Alte": 5547,
      "nav": 5548,
      "Îi": 5549,
      "tendin": 5550,
      "primar": 5551,
      "Grat": 5552,
      "drepturilor": 5553,
      "pericol": 5554,
      "devină": 5555,
      "sută": 5556,
      "Iisus": 5557,
      "acumul": 5558,
      "##land": 5559,
      "Codul": 5560,
      "pregătit": 5561,
      "##SE": 5562,
      "pacient": 5563,
      "imposibil": 5564,
      "##zonul": 5565,
      "iei": 5566,
      "examin": 5567,
      "Decizia": 5568,
      "rev": 5569,
      "tempor": 5570,
      "semne": 5571,
      "regiunea": 5572,
      "bucurie": 5573,
      "aud": 5574,
      "măsura": 5575,
      "locului": 5576,
      "##RU": 5577,
      "kilomet": 5578,
      "##oanele": 5579,
      "General": 5580,
      "##ulescu": 5581,
      "##ficat": 5582,
      "preocu": 5583,
      "precizat": 5584,
      "ăla": 5585,
      "cî": 5586,
      "Piața": 5587,
      "directorul": 5588,
      "metal": 5589,
      "Cate": 5590,
      "autoturi": 5591,
      "scos": 5592,
      "suspen": 5593,
      "##ideoclipuri": 5594,
      "bul": 5595,
      "următorul": 5596,
      "uz": 5597,
      "DNA": 5598,
      "temeiul": 5599,
      "piat": 5600,
      "bru": 5601,
      "Oficial": 5602,
      "Muzeul": 5603,
      "naștere": 5604,
      "cadru": 5605,
      "autorităților": 5606,
      "expe": 5607,
      "##mor": 5608,
      "Port": 5609,
      "select": 5610,
      "##cuv": 5611,
      "Tehn": 5612,
      "concuren": 5613,
      "automat": 5614,
      "orele": 5615,
      "##uiți": 5616,
      "06": 5617,
      "Iohannis": 5618,
      "pună": 5619,
      "dincolo": 5620,
      "Cerce": 5621,
      "toții": 5622,
      "aro": 5623,
      "stradă": 5624,
      "finanțare": 5625,
      "##ctul": 5626,
      "străinătate": 5627,
      "satul": 5628,
      "exploat": 5629,
      "##dam": 5630,
      "##oma": 5631,
      "mulțime": 5632,
      "##itari": 5633,
      "caută": 5634,
      "adevărul": 5635,
      "muzica": 5636,
      "##dența": 5637,
      "nop": 5638,
      "disponibil": 5639,
      "Fede": 5640,
      "actual": 5641,
      "pește": 5642,
      "juridice": 5643,
      "specială": 5644,
      "stele": 5645,
      "400": 5646,
      "Arad": 5647,
      "##ez": 5648,
      "York": 5649,
      "puse": 5650,
      "FC": 5651,
      "căror": 5652,
      "înaltă": 5653,
      "iubire": 5654,
      "impres": 5655,
      "##alii": 5656,
      "intrarea": 5657,
      "Parlamentul": 5658,
      "##ducere": 5659,
      "##tis": 5660,
      "simpt": 5661,
      "Pra": 5662,
      "anual": 5663,
      "cunoștin": 5664,
      "Lim": 5665,
      "știți": 5666,
      "distin": 5667,
      "Ortodox": 5668,
      "##uma": 5669,
      "materie": 5670,
      "refuz": 5671,
      "admi": 5672,
      "##stur": 5673,
      "medicamente": 5674,
      "închide": 5675,
      "rup": 5676,
      "petrecut": 5677,
      "interesante": 5678,
      "Media": 5679,
      "facul": 5680,
      "##ezi": 5681,
      "origine": 5682,
      "##icat": 5683,
      "Dob": 5684,
      "lect": 5685,
      "Mureș": 5686,
      "##vor": 5687,
      "munte": 5688,
      "didact": 5689,
      "deven": 5690,
      "generală": 5691,
      "intera": 5692,
      "tab": 5693,
      "președintelui": 5694,
      "afiș": 5695,
      "##uter": 5696,
      "zg": 5697,
      "Crai": 5698,
      "muncii": 5699,
      "gândesc": 5700,
      "crimin": 5701,
      "##șului": 5702,
      "adaugă": 5703,
      "opti": 5704,
      "##lim": 5705,
      "Pub": 5706,
      "tratamentul": 5707,
      "simțit": 5708,
      "prezentul": 5709,
      "Dia": 5710,
      "Echip": 5711,
      "contextul": 5712,
      "regă": 5713,
      "incre": 5714,
      "elevi": 5715,
      "ajute": 5716,
      "progre": 5717,
      "term": 5718,
      "##darea": 5719,
      "secolul": 5720,
      "export": 5721,
      "pacienții": 5722,
      "Fă": 5723,
      "Bib": 5724,
      "PD": 5725,
      "înalt": 5726,
      "##ivale": 5727,
      "##ctorului": 5728,
      "ocu": 5729,
      "zâmb": 5730,
      "stânga": 5731,
      "înconj": 5732,
      "concre": 5733,
      "somn": 5734,
      "Serbia": 5735,
      "Obie": 5736,
      "Pove": 5737,
      "cheie": 5738,
      "##ziile": 5739,
      "pedep": 5740,
      "proprii": 5741,
      "Mana": 5742,
      "mâinile": 5743,
      "##iască": 5744,
      "Ulti": 5745,
      "apropi": 5746,
      "comunicat": 5747,
      "150": 5748,
      "natura": 5749,
      "vânză": 5750,
      "Nea": 5751,
      "legat": 5752,
      "##lut": 5753,
      "atinge": 5754,
      "Mor": 5755,
      "culturale": 5756,
      "activitățile": 5757,
      "##cătoare": 5758,
      "acte": 5759,
      "farma": 5760,
      "expri": 5761,
      "##minte": 5762,
      "Pers": 5763,
      "Ho": 5764,
      "##ATO": 5765,
      "vul": 5766,
      "Șco": 5767,
      "##ding": 5768,
      "plac": 5769,
      "##niș": 5770,
      "NU": 5771,
      "IS": 5772,
      "vacanță": 5773,
      "efecte": 5774,
      "tehnic": 5775,
      "surpri": 5776,
      "recup": 5777,
      "fratele": 5778,
      "radio": 5779,
      "accesul": 5780,
      "Sport": 5781,
      "încad": 5782,
      "##imes": 5783,
      "istoric": 5784,
      "piese": 5785,
      "##rn": 5786,
      "fructe": 5787,
      "plas": 5788,
      "Cunoaște": 5789,
      "Gă": 5790,
      "obligatori": 5791,
      "vecin": 5792,
      "ram": 5793,
      "Înainte": 5794,
      "##turile": 5795,
      "Bucuresti": 5796,
      "##gres": 5797,
      "electrice": 5798,
      "săptămâna": 5799,
      "##UI": 5800,
      "chine": 5801,
      "mâncare": 5802,
      "industria": 5803,
      "Pu": 5804,
      "merită": 5805,
      "vest": 5806,
      "oferite": 5807,
      "politica": 5808,
      "cuvântul": 5809,
      "însuși": 5810,
      "arăta": 5811,
      "ansamb": 5812,
      "numă": 5813,
      "zonele": 5814,
      "Gro": 5815,
      "locală": 5816,
      "##starea": 5817,
      "##usul": 5818,
      "link": 5819,
      "rezultatul": 5820,
      "reprezentanții": 5821,
      "dete": 5822,
      "unități": 5823,
      "Printre": 5824,
      "căldu": 5825,
      "Por": 5826,
      "##fica": 5827,
      "fizică": 5828,
      "imi": 5829,
      "cărui": 5830,
      "##icu": 5831,
      "intelect": 5832,
      "75": 5833,
      "deran": 5834,
      "42": 5835,
      "imaginea": 5836,
      "##seră": 5837,
      "apariția": 5838,
      "colaborare": 5839,
      "lumin": 5840,
      "mamă": 5841,
      "strălu": 5842,
      "##sb": 5843,
      "Traian": 5844,
      "Biro": 5845,
      "întoc": 5846,
      "##olă": 5847,
      "specialitate": 5848,
      "Dom": 5849,
      "##osul": 5850,
      "Gu": 5851,
      "Duh": 5852,
      "cumpă": 5853,
      "repro": 5854,
      "similare": 5855,
      "Autori": 5856,
      "##rurg": 5857,
      "Ae": 5858,
      "##iență": 5859,
      "mese": 5860,
      "Premi": 5861,
      "strat": 5862,
      "bat": 5863,
      "șa": 5864,
      "##okie": 5865,
      "feti": 5866,
      "Parte": 5867,
      "cultural": 5868,
      "##țel": 5869,
      "încuraj": 5870,
      "##oți": 5871,
      "ceal": 5872,
      "experiența": 5873,
      "promovarea": 5874,
      "Copii": 5875,
      "consolid": 5876,
      "##mart": 5877,
      "SRL": 5878,
      "var": 5879,
      "presa": 5880,
      "##operă": 5881,
      "##UT": 5882,
      "Numai": 5883,
      "Acord": 5884,
      "cânte": 5885,
      "##ânta": 5886,
      "Hol": 5887,
      "##sului": 5888,
      "boli": 5889,
      "procesului": 5890,
      "04": 5891,
      "procur": 5892,
      "Kosovo": 5893,
      "44": 5894,
      "lucrările": 5895,
      "foa": 5896,
      "elibe": 5897,
      "manifestă": 5898,
      "##andă": 5899,
      "EUR": 5900,
      "generale": 5901,
      "povești": 5902,
      "sensibil": 5903,
      "##ziei": 5904,
      "rot": 5905,
      "domic": 5906,
      "ajungă": 5907,
      "doriți": 5908,
      "Petru": 5909,
      "cerere": 5910,
      "gri": 5911,
      "nerv": 5912,
      "oferte": 5913,
      "mișcare": 5914,
      "planul": 5915,
      "##bon": 5916,
      "trăiesc": 5917,
      "##stare": 5918,
      "întrebare": 5919,
      "internațională": 5920,
      "pielea": 5921,
      "uria": 5922,
      "respin": 5923,
      "inițial": 5924,
      "părinți": 5925,
      "Hai": 5926,
      "conven": 5927,
      "IT": 5928,
      "descrie": 5929,
      "credință": 5930,
      "împărtă": 5931,
      "duș": 5932,
      "##amentele": 5933,
      "impozit": 5934,
      "##des": 5935,
      "guvernul": 5936,
      "secolului": 5937,
      "mig": 5938,
      "Universității": 5939,
      "Băsescu": 5940,
      "aparțin": 5941,
      "tema": 5942,
      "adăugat": 5943,
      "Toți": 5944,
      "##cunos": 5945,
      "##tion": 5946,
      "##atic": 5947,
      "##rezi": 5948,
      "bom": 5949,
      "privința": 5950,
      "iubit": 5951,
      "puține": 5952,
      "dl": 5953,
      "mut": 5954,
      "Jap": 5955,
      "stai": 5956,
      "trup": 5957,
      "Hei": 5958,
      "cron": 5959,
      "statist": 5960,
      "Șe": 5961,
      "##fon": 5962,
      "Jurn": 5963,
      "##mes": 5964,
      "penal": 5965,
      "vinov": 5966,
      "profesional": 5967,
      "Char": 5968,
      "aceleași": 5969,
      "don": 5970,
      "județ": 5971,
      "observat": 5972,
      "afirm": 5973,
      "Ponta": 5974,
      "statelor": 5975,
      "elim": 5976,
      "41": 5977,
      "Munte": 5978,
      "etiche": 5979,
      "##hat": 5980,
      "ml": 5981,
      "cuvintele": 5982,
      "simplă": 5983,
      "pleca": 5984,
      "lapte": 5985,
      "atâta": 5986,
      "inta": 5987,
      "##țiș": 5988,
      "degrabă": 5989,
      "##furi": 5990,
      "parteneri": 5991,
      "pose": 5992,
      "##xic": 5993,
      "externe": 5994,
      "folosește": 5995,
      "profesională": 5996,
      "Ministrul": 5997,
      "dispozitiv": 5998,
      "##ricii": 5999,
      "revolu": 6000,
      "##cata": 6001,
      "Int": 6002,
      "##III": 6003,
      "Război": 6004,
      "XV": 6005,
      "dispune": 6006,
      "##ho": 6007,
      "buget": 6008,
      "anilor": 6009,
      "Util": 6010,
      "plani": 6011,
      "Sin": 6012,
      "izol": 6013,
      "Ang": 6014,
      "dosarul": 6015,
      "##nici": 6016,
      "##ătorii": 6017,
      "scriu": 6018,
      "cultură": 6019,
      "primarul": 6020,
      "conserv": 6021,
      "anal": 6022,
      "aviz": 6023,
      "Internațional": 6024,
      "existat": 6025,
      "municipiului": 6026,
      "tub": 6027,
      "##seze": 6028,
      "demis": 6029,
      "Contin": 6030,
      "Peste": 6031,
      "43": 6032,
      "Dec": 6033,
      "medical": 6034,
      "##matic": 6035,
      "călătorie": 6036,
      "combate": 6037,
      "avent": 6038,
      "monu": 6039,
      "##cțiilor": 6040,
      "Cristian": 6041,
      "asigurarea": 6042,
      "Institutul": 6043,
      "ghi": 6044,
      "engleză": 6045,
      "##OS": 6046,
      "##ălalt": 6047,
      "opre": 6048,
      "Totul": 6049,
      "55": 6050,
      "Profe": 6051,
      "publicului": 6052,
      "Ilie": 6053,
      "descăr": 6054,
      "##ell": 6055,
      "curat": 6056,
      "schimbare": 6057,
      "depen": 6058,
      "spori": 6059,
      "folosind": 6060,
      "înloc": 6061,
      "ocupă": 6062,
      "Ucraina": 6063,
      "Școala": 6064,
      "##pren": 6065,
      "##ano": 6066,
      "##EC": 6067,
      "ajutat": 6068,
      "##ret": 6069,
      "##zz": 6070,
      "Bulgaria": 6071,
      "propor": 6072,
      "Adev": 6073,
      "##date": 6074,
      "autent": 6075,
      "##șilor": 6076,
      "aeroport": 6077,
      "Porn": 6078,
      "vizit": 6079,
      "aprobat": 6080,
      "Sigur": 6081,
      "listă": 6082,
      "greșit": 6083,
      "domicili": 6084,
      "##teaza": 6085,
      "##osit": 6086,
      "##jului": 6087,
      "IV": 6088,
      "televiz": 6089,
      "##odata": 6090,
      "##ciei": 6091,
      "van": 6092,
      "prezen": 6093,
      "agricul": 6094,
      "serios": 6095,
      "maximă": 6096,
      "dorința": 6097,
      "Directiva": 6098,
      "recip": 6099,
      "##vele": 6100,
      "Capit": 6101,
      "principale": 6102,
      "Pie": 6103,
      "Ke": 6104,
      "##sen": 6105,
      "##âi": 6106,
      "##rita": 6107,
      "organizate": 6108,
      "contează": 6109,
      "caut": 6110,
      "pis": 6111,
      "corpului": 6112,
      "Ungaria": 6113,
      "##dica": 6114,
      "turn": 6115,
      "Roș": 6116,
      "plic": 6117,
      "##guri": 6118,
      "##io": 6119,
      "telefonul": 6120,
      "Lin": 6121,
      "teatru": 6122,
      "dovedit": 6123,
      "sisteme": 6124,
      "elevii": 6125,
      "personală": 6126,
      "##giul": 6127,
      "neb": 6128,
      "marca": 6129,
      "ingred": 6130,
      "treilea": 6131,
      "##ficiale": 6132,
      "raportul": 6133,
      "##forme": 6134,
      "exper": 6135,
      "##răgu": 6136,
      "desfășurat": 6137,
      "Ed": 6138,
      "##val": 6139,
      "constă": 6140,
      "Sus": 6141,
      "german": 6142,
      "cetățenilor": 6143,
      "asistență": 6144,
      "Ordin": 6145,
      "muze": 6146,
      "experien": 6147,
      "##EL": 6148,
      "negocie": 6149,
      "șter": 6150,
      "numi": 6151,
      "diagnost": 6152,
      "fiica": 6153,
      "uti": 6154,
      "Grecia": 6155,
      "birou": 6156,
      "biserică": 6157,
      "apei": 6158,
      "Im": 6159,
      "bucătă": 6160,
      "Gru": 6161,
      "##lod": 6162,
      "suf": 6163,
      "discuție": 6164,
      "excele": 6165,
      "părea": 6166,
      "instrument": 6167,
      "marea": 6168,
      "##abil": 6169,
      "Română": 6170,
      "binecuv": 6171,
      "liniște": 6172,
      "Bruxel": 6173,
      "ofi": 6174,
      "##gerii": 6175,
      "Dună": 6176,
      "scen": 6177,
      "alegerea": 6178,
      "radi": 6179,
      "ati": 6180,
      "localitatea": 6181,
      "##voi": 6182,
      "NATO": 6183,
      "grupul": 6184,
      "Craiova": 6185,
      "Inve": 6186,
      "Așadar": 6187,
      "angajat": 6188,
      "inceput": 6189,
      "Păi": 6190,
      "obiectul": 6191,
      "sind": 6192,
      "vara": 6193,
      "relev": 6194,
      "##que": 6195,
      "scul": 6196,
      "Her": 6197,
      "riscul": 6198,
      "cas": 6199,
      "##andar": 6200,
      "opera": 6201,
      "##ty": 6202,
      "Numele": 6203,
      "##oră": 6204,
      "militare": 6205,
      "răzb": 6206,
      "##agă": 6207,
      "Britanie": 6208,
      "poliție": 6209,
      "existența": 6210,
      "##siunii": 6211,
      "dic": 6212,
      "obiect": 6213,
      "up": 6214,
      "Inspector": 6215,
      "restaura": 6216,
      "##iba": 6217,
      "înscrie": 6218,
      "##ctă": 6219,
      "voast": 6220,
      "Indi": 6221,
      "ordon": 6222,
      "Dr": 6223,
      "##ienii": 6224,
      "moște": 6225,
      "țig": 6226,
      "finală": 6227,
      "Slo": 6228,
      "Princip": 6229,
      "contempor": 6230,
      "Tit": 6231,
      "##ofi": 6232,
      "împărți": 6233,
      "stabilirea": 6234,
      "Unii": 6235,
      "seamă": 6236,
      "prezentă": 6237,
      "întregi": 6238,
      "##TA": 6239,
      "##ptele": 6240,
      "relație": 6241,
      "##ino": 6242,
      "dosar": 6243,
      "scurtă": 6244,
      "solicita": 6245,
      "Oradea": 6246,
      "adevă": 6247,
      "week": 6248,
      "##sedin": 6249,
      "AP": 6250,
      "##ntarea": 6251,
      "##dentă": 6252,
      "aspecte": 6253,
      "optim": 6254,
      "##exi": 6255,
      "drog": 6256,
      "Arm": 6257,
      "##iță": 6258,
      "47": 6259,
      "Bruxelles": 6260,
      "##ows": 6261,
      "##riile": 6262,
      "amenin": 6263,
      "meargă": 6264,
      "##face": 6265,
      "reviz": 6266,
      "46": 6267,
      "##ricole": 6268,
      "##igi": 6269,
      "##uth": 6270,
      "transpare": 6271,
      "diferit": 6272,
      "ext": 6273,
      "Moldovei": 6274,
      "scena": 6275,
      "rege": 6276,
      "##lande": 6277,
      "Speci": 6278,
      "relații": 6279,
      "Păm": 6280,
      "##inci": 6281,
      "##imit": 6282,
      "##voarea": 6283,
      "Transilvania": 6284,
      "##red": 6285,
      "poziție": 6286,
      "secund": 6287,
      "știut": 6288,
      "Para": 6289,
      "Pi": 6290,
      "rat": 6291,
      "procedura": 6292,
      "##cord": 6293,
      "Ope": 6294,
      "iarnă": 6295,
      "proprietate": 6296,
      "Pavel": 6297,
      "##otrivă": 6298,
      "românii": 6299,
      "Spania": 6300,
      "Mate": 6301,
      "Deput": 6302,
      "referă": 6303,
      "sã": 6304,
      "inde": 6305,
      "acordă": 6306,
      "existente": 6307,
      "##xa": 6308,
      "vizită": 6309,
      "luate": 6310,
      "îndeplini": 6311,
      "instituțiile": 6312,
      "Bur": 6313,
      "găz": 6314,
      "biserica": 6315,
      "##reaza": 6316,
      "intelig": 6317,
      "bibliote": 6318,
      "alăt": 6319,
      "cunoscută": 6320,
      "veche": 6321,
      "##oziția": 6322,
      "##țeles": 6323,
      "parți": 6324,
      "##ley": 6325,
      "drepturi": 6326,
      "rus": 6327,
      "adver": 6328,
      "utilizează": 6329,
      "CA": 6330,
      "organizează": 6331,
      "Flo": 6332,
      "modelul": 6333,
      "pret": 6334,
      "fericit": 6335,
      "cobor": 6336,
      "##let": 6337,
      "asemăn": 6338,
      "##nii": 6339,
      "rost": 6340,
      "roșu": 6341,
      "atac": 6342,
      "kilometri": 6343,
      "##spo": 6344,
      "Jocuri": 6345,
      "relația": 6346,
      "Liga": 6347,
      "Form": 6348,
      "interesul": 6349,
      "nucle": 6350,
      "dobând": 6351,
      "obiecte": 6352,
      "Valea": 6353,
      "Rezul": 6354,
      "epis": 6355,
      "dificul": 6356,
      "modificările": 6357,
      "##atură": 6358,
      "##ficate": 6359,
      "consult": 6360,
      "democrat": 6361,
      "scenă": 6362,
      "fug": 6363,
      "Londra": 6364,
      "următor": 6365,
      "Nimeni": 6366,
      "ign": 6367,
      "termenul": 6368,
      "adoptat": 6369,
      "##ferim": 6370,
      "dragostea": 6371,
      "vânzare": 6372,
      "##pescu": 6373,
      "interesant": 6374,
      "puternice": 6375,
      "Florin": 6376,
      "ideal": 6377,
      "cealaltă": 6378,
      "past": 6379,
      "ușoară": 6380,
      "Inf": 6381,
      "Echipa": 6382,
      "larg": 6383,
      "sil": 6384,
      "fizic": 6385,
      "pasă": 6386,
      "făcea": 6387,
      "##imna": 6388,
      "Il": 6389,
      "Arh": 6390,
      "femeia": 6391,
      "##cepe": 6392,
      "carie": 6393,
      "fierbinte": 6394,
      "##ască": 6395,
      "obținute": 6396,
      "Situ": 6397,
      "ume": 6398,
      "linie": 6399,
      "licit": 6400,
      "atrage": 6401,
      "##OC": 6402,
      "departa": 6403,
      "inje": 6404,
      "Petre": 6405,
      "soft": 6406,
      "Una": 6407,
      "##rală": 6408,
      "profesionale": 6409,
      "celălalt": 6410,
      "limita": 6411,
      "rul": 6412,
      "săra": 6413,
      "##ocul": 6414,
      "completarea": 6415,
      "65": 6416,
      "existe": 6417,
      "prile": 6418,
      "Timp": 6419,
      "##bra": 6420,
      "oprit": 6421,
      "alimente": 6422,
      "ortodox": 6423,
      "pieței": 6424,
      "precedent": 6425,
      "implică": 6426,
      "auzi": 6427,
      "##siunile": 6428,
      "parteneriat": 6429,
      "titlu": 6430,
      "ure": 6431,
      "##istul": 6432,
      "imun": 6433,
      "ferm": 6434,
      "scaun": 6435,
      "##rise": 6436,
      "marcat": 6437,
      "comunei": 6438,
      "Site": 6439,
      "##keting": 6440,
      "dedicat": 6441,
      "##zeci": 6442,
      "însoți": 6443,
      "##dure": 6444,
      "roa": 6445,
      "Zile": 6446,
      "##itati": 6447,
      "tână": 6448,
      "locuitori": 6449,
      "##ovic": 6450,
      "căzut": 6451,
      "##cțiunile": 6452,
      "##dială": 6453,
      "legătura": 6454,
      "Internet": 6455,
      "experiment": 6456,
      "##mina": 6457,
      "##bw": 6458,
      "explicat": 6459,
      "##cuta": 6460,
      "insa": 6461,
      "pache": 6462,
      "românilor": 6463,
      "tehnică": 6464,
      "vers": 6465,
      "##rapie": 6466,
      "Citește": 6467,
      "medica": 6468,
      "înălți": 6469,
      "medicală": 6470,
      "aband": 6471,
      "ridică": 6472,
      "deschisă": 6473,
      "##tena": 6474,
      "Bor": 6475,
      "49": 6476,
      "corpor": 6477,
      "imb": 6478,
      "veș": 6479,
      "continuat": 6480,
      "##no": 6481,
      "accep": 6482,
      "adevărată": 6483,
      "oricare": 6484,
      "referi": 6485,
      "angajați": 6486,
      "legal": 6487,
      "##ys": 6488,
      "##uiesc": 6489,
      "##ish": 6490,
      "venituri": 6491,
      "##lant": 6492,
      "trăit": 6493,
      "Cen": 6494,
      "Bărb": 6495,
      "comuni": 6496,
      "Sala": 6497,
      "modificări": 6498,
      "reuș": 6499,
      "sate": 6500,
      "Puteți": 6501,
      "grave": 6502,
      "come": 6503,
      "adre": 6504,
      "urmând": 6505,
      "insi": 6506,
      "##dează": 6507,
      "întreru": 6508,
      "##iera": 6509,
      "acțiunile": 6510,
      "Compania": 6511,
      "voastră": 6512,
      "regiune": 6513,
      "constit": 6514,
      "polițiștii": 6515,
      "pescu": 6516,
      "##uci": 6517,
      "defic": 6518,
      "Cul": 6519,
      "Plan": 6520,
      "##CR": 6521,
      "Gene": 6522,
      "particul": 6523,
      "categorii": 6524,
      "intens": 6525,
      "sursă": 6526,
      "not": 6527,
      "Aface": 6528,
      "gaze": 6529,
      "edu": 6530,
      "Omul": 6531,
      "Prea": 6532,
      "săl": 6533,
      "criteri": 6534,
      "##vale": 6535,
      "cerințele": 6536,
      "Lo": 6537,
      "confruntă": 6538,
      "##ctia": 6539,
      "auton": 6540,
      "suferit": 6541,
      "isi": 6542,
      "realiza": 6543,
      "jap": 6544,
      "Mondial": 6545,
      "destinate": 6546,
      "##terioară": 6547,
      "##ks": 6548,
      "oricum": 6549,
      "##cina": 6550,
      "informează": 6551,
      "54": 6552,
      "##ău": 6553,
      "conștient": 6554,
      "furt": 6555,
      "întreține": 6556,
      "amintesc": 6557,
      "labor": 6558,
      "proven": 6559,
      "depinde": 6560,
      "Totodată": 6561,
      "vina": 6562,
      "Anal": 6563,
      "##cătorilor": 6564,
      "doamna": 6565,
      "hran": 6566,
      "Act": 6567,
      "conști": 6568,
      "minunat": 6569,
      "##ovi": 6570,
      "##aniile": 6571,
      "efectuat": 6572,
      "##președin": 6573,
      "Mosc": 6574,
      "domenii": 6575,
      "forță": 6576,
      "așteptat": 6577,
      "fr": 6578,
      "Lum": 6579,
      "decizii": 6580,
      "permanent": 6581,
      "Tatăl": 6582,
      "pâ": 6583,
      "declan": 6584,
      "colect": 6585,
      "soc": 6586,
      "manu": 6587,
      "##xt": 6588,
      "vehicul": 6589,
      "respectivă": 6590,
      "2019": 6591,
      "moderne": 6592,
      "##sf": 6593,
      "naiba": 6594,
      "prevederile": 6595,
      "aprin": 6596,
      "municipiul": 6597,
      "##orează": 6598,
      "confe": 6599,
      "Fam": 6600,
      "fiscal": 6601,
      "Fun": 6602,
      "primăv": 6603,
      "haine": 6604,
      "ned": 6605,
      "cen": 6606,
      "1990": 6607,
      "glu": 6608,
      "linia": 6609,
      "##riarh": 6610,
      "ulterioare": 6611,
      "abil": 6612,
      "uite": 6613,
      "##onescu": 6614,
      "vizitat": 6615,
      "următoarea": 6616,
      "ediția": 6617,
      "Aplic": 6618,
      "soluțion": 6619,
      "punerea": 6620,
      "##reea": 6621,
      "instit": 6622,
      "locurile": 6623,
      "urme": 6624,
      "dezvoltat": 6625,
      "Transp": 6626,
      "vehicule": 6627,
      "Victori": 6628,
      "Rel": 6629,
      "deput": 6630,
      "accent": 6631,
      "Tul": 6632,
      "șansă": 6633,
      "##UM": 6634,
      "##strul": 6635,
      "Iulia": 6636,
      "luăm": 6637,
      "ST": 6638,
      "TVA": 6639,
      "Agenția": 6640,
      "pacienți": 6641,
      "financiară": 6642,
      "Trei": 6643,
      "##inta": 6644,
      "largă": 6645,
      "SP": 6646,
      "casei": 6647,
      "cance": 6648,
      "asigure": 6649,
      "##țiu": 6650,
      "devin": 6651,
      "dracu": 6652,
      "Bogdan": 6653,
      "##mant": 6654,
      "Disp": 6655,
      "aran": 6656,
      "Dem": 6657,
      "##oza": 6658,
      "dinam": 6659,
      "XX": 6660,
      "autoritatea": 6661,
      "consili": 6662,
      "resurse": 6663,
      "întâlnește": 6664,
      "tinerii": 6665,
      "##uga": 6666,
      "Vas": 6667,
      "afirmă": 6668,
      "organizată": 6669,
      "color": 6670,
      "medicul": 6671,
      "Maj": 6672,
      "dorim": 6673,
      "Cuv": 6674,
      "Fete": 6675,
      "##șcă": 6676,
      "insu": 6677,
      "sche": 6678,
      "cunoșt": 6679,
      "Ado": 6680,
      "##mene": 6681,
      "agent": 6682,
      "roch": 6683,
      "##orp": 6684,
      "##lon": 6685,
      "rutier": 6686,
      "zb": 6687,
      "autor": 6688,
      "reuși": 6689,
      "centre": 6690,
      "estim": 6691,
      "##aram": 6692,
      "hidro": 6693,
      "##telui": 6694,
      "##ling": 6695,
      "deplas": 6696,
      "##atate": 6697,
      "Cas": 6698,
      "##formă": 6699,
      "recunoscut": 6700,
      "IP": 6701,
      "Pic": 6702,
      "aducă": 6703,
      "Persoane": 6704,
      "Bro": 6705,
      "cuce": 6706,
      "categorie": 6707,
      "##dina": 6708,
      "autoriz": 6709,
      "Sur": 6710,
      "Proce": 6711,
      "##sirea": 6712,
      "gura": 6713,
      "1989": 6714,
      "##lementare": 6715,
      "cumpărat": 6716,
      "cateva": 6717,
      "##cuți": 6718,
      "##IB": 6719,
      "intrare": 6720,
      "##nel": 6721,
      "incul": 6722,
      "190": 6723,
      "fla": 6724,
      "nomin": 6725,
      "defini": 6726,
      "##oarelor": 6727,
      "Ange": 6728,
      "##oarte": 6729,
      "acordul": 6730,
      "contractului": 6731,
      "buz": 6732,
      "##alta": 6733,
      "ofere": 6734,
      "depus": 6735,
      "##gina": 6736,
      "##stro": 6737,
      "Rez": 6738,
      "bicicle": 6739,
      "conect": 6740,
      "gas": 6741,
      "AS": 6742,
      "aleg": 6743,
      "istorice": 6744,
      "##stența": 6745,
      "Local": 6746,
      "contribuie": 6747,
      "frică": 6748,
      "Wind": 6749,
      "trăi": 6750,
      "favoarea": 6751,
      "securi": 6752,
      "griji": 6753,
      "curaj": 6754,
      "Elena": 6755,
      "corespunzătoare": 6756,
      "mete": 6757,
      "argin": 6758,
      "plătit": 6759,
      "bucura": 6760,
      "##uză": 6761,
      "##mbur": 6762,
      "##bie": 6763,
      "##stului": 6764,
      "51": 6765,
      "toti": 6766,
      "##jă": 6767,
      "candidat": 6768,
      "deșe": 6769,
      "##bila": 6770,
      "mp": 6771,
      "##oiu": 6772,
      "Exe": 6773,
      "##sol": 6774,
      "Hotărâ": 6775,
      "bil": 6776,
      "ocupat": 6777,
      "inch": 6778,
      "primesc": 6779,
      "impune": 6780,
      "comen": 6781,
      "##nirea": 6782,
      "Parlament": 6783,
      "Activ": 6784,
      "cetățenii": 6785,
      "aprec": 6786,
      "Lup": 6787,
      "reale": 6788,
      "##săm": 6789,
      "ÎN": 6790,
      "participarea": 6791,
      "ip": 6792,
      "rămână": 6793,
      "##ICI": 6794,
      "apropiere": 6795,
      "secunde": 6796,
      "##matice": 6797,
      "aeri": 6798,
      "adun": 6799,
      "Fiind": 6800,
      "##oziție": 6801,
      "PE": 6802,
      "tras": 6803,
      "pielii": 6804,
      "funcții": 6805,
      "##țuri": 6806,
      "##vârși": 6807,
      "metode": 6808,
      "prevederilor": 6809,
      "reală": 6810,
      "acti": 6811,
      "propriile": 6812,
      "Camera": 6813,
      "##cele": 6814,
      "demn": 6815,
      "##cian": 6816,
      "familii": 6817,
      "primea": 6818,
      "meciul": 6819,
      "hotărât": 6820,
      "perfe": 6821,
      "bebe": 6822,
      "##surile": 6823,
      "introdu": 6824,
      "deschise": 6825,
      "emite": 6826,
      "superior": 6827,
      "##icilor": 6828,
      "județului": 6829,
      "folosirea": 6830,
      "##uzia": 6831,
      "amând": 6832,
      "dispozitive": 6833,
      "nați": 6834,
      "rapidă": 6835,
      "operat": 6836,
      "pagină": 6837,
      "luați": 6838,
      "prezenți": 6839,
      "analiza": 6840,
      "tata": 6841,
      "##rină": 6842,
      "ocazie": 6843,
      "##har": 6844,
      "##onez": 6845,
      "incom": 6846,
      "mergi": 6847,
      "publicată": 6848,
      "desen": 6849,
      "Mulțumesc": 6850,
      "##rița": 6851,
      "Proiect": 6852,
      "trec": 6853,
      "##torilor": 6854,
      "urilor": 6855,
      "oricine": 6856,
      "##turii": 6857,
      "##ash": 6858,
      "aflați": 6859,
      "##rorii": 6860,
      "Repre": 6861,
      "tulbu": 6862,
      "simte": 6863,
      "##ferente": 6864,
      "Încep": 6865,
      "regiz": 6866,
      "prot": 6867,
      "##dor": 6868,
      "firma": 6869,
      "anumit": 6870,
      "umană": 6871,
      "Bună": 6872,
      "televiziune": 6873,
      "necesită": 6874,
      "Banca": 6875,
      "Ordon": 6876,
      "propriul": 6877,
      "##roid": 6878,
      "soțul": 6879,
      "referință": 6880,
      "spunem": 6881,
      "înv": 6882,
      "procedură": 6883,
      "Frum": 6884,
      "liberă": 6885,
      "##uc": 6886,
      "dreptului": 6887,
      "fusese": 6888,
      "desigur": 6889,
      "serviciul": 6890,
      "##sime": 6891,
      "pct": 6892,
      "ara": 6893,
      "administrarea": 6894,
      "mascul": 6895,
      "electric": 6896,
      "##ficări": 6897,
      "52": 6898,
      "oferta": 6899,
      "##reve": 6900,
      "contul": 6901,
      "durere": 6902,
      "fabric": 6903,
      "IM": 6904,
      "Jos": 6905,
      "adolescen": 6906,
      "frate": 6907,
      "Net": 6908,
      "tinerilor": 6909,
      "introduce": 6910,
      "știință": 6911,
      "gât": 6912,
      "Dist": 6913,
      "Municipiului": 6914,
      "Trat": 6915,
      "##ber": 6916,
      "imen": 6917,
      "unitate": 6918,
      "numără": 6919,
      "##otelul": 6920,
      "Nat": 6921,
      "ciudat": 6922,
      "deleg": 6923,
      "sezonul": 6924,
      "Marius": 6925,
      "set": 6926,
      "Stă": 6927,
      "vazut": 6928,
      "desfășura": 6929,
      "exerc": 6930,
      "##US": 6931,
      "valorile": 6932,
      "totodată": 6933,
      "sare": 6934,
      "interviu": 6935,
      "600": 6936,
      "funcționarea": 6937,
      "fiscale": 6938,
      "Evenimentul": 6939,
      "mamei": 6940,
      "chip": 6941,
      "împrej": 6942,
      "sursa": 6943,
      "Ti": 6944,
      "grupuri": 6945,
      "vizita": 6946,
      "##core": 6947,
      "agricole": 6948,
      "dăm": 6949,
      "Iehova": 6950,
      "explică": 6951,
      "nevoia": 6952,
      "rețe": 6953,
      "pâr": 6954,
      "fericire": 6955,
      "relațiile": 6956,
      "priori": 6957,
      "instrumente": 6958,
      "respectarea": 6959,
      "antic": 6960,
      "CEE": 6961,
      "ja": 6962,
      "echivale": 6963,
      "frag": 6964,
      "##lează": 6965,
      "petro": 6966,
      "alcăt": 6967,
      "scand": 6968,
      "SI": 6969,
      "##CE": 6970,
      "calen": 6971,
      "iubirea": 6972,
      "##ntate": 6973,
      "Editura": 6974,
      "împrumut": 6975,
      "##înțeles": 6976,
      "sticlă": 6977,
      "dimensiuni": 6978,
      "Pun": 6979,
      "##ctie": 6980,
      "aju": 6981,
      "AR": 6982,
      "litera": 6983,
      "treabă": 6984,
      "abor": 6985,
      "Secre": 6986,
      "##stri": 6987,
      "modificare": 6988,
      "efectele": 6989,
      "antrepren": 6990,
      "Proble": 6991,
      "##basa": 6992,
      "##tești": 6993,
      "context": 6994,
      "Tud": 6995,
      "Tocmai": 6996,
      "motivul": 6997,
      "Popescu": 6998,
      "descur": 6999,
      "invită": 7000,
      "magazine": 7001,
      "Basara": 7002,
      "rezolv": 7003,
      "period": 7004,
      "evit": 7005,
      "##alității": 7006,
      "grupului": 7007,
      "sănătatea": 7008,
      "colon": 7009,
      "bătă": 7010,
      "##cedon": 7011,
      "volumul": 7012,
      "Stan": 7013,
      "boală": 7014,
      "##tări": 7015,
      "lucrărilor": 7016,
      "gay": 7017,
      "1999": 7018,
      "lux": 7019,
      "scor": 7020,
      "##terin": 7021,
      "Prezent": 7022,
      "vostru": 7023,
      "inse": 7024,
      "cookie": 7025,
      "înghe": 7026,
      "Roma": 7027,
      "aferente": 7028,
      "##orte": 7029,
      "discuții": 7030,
      "raspun": 7031,
      "lichi": 7032,
      "postul": 7033,
      "##izează": 7034,
      "numește": 7035,
      "Râ": 7036,
      "##────────": 7037,
      "praf": 7038,
      "2020": 7039,
      "convins": 7040,
      "vizu": 7041,
      "mânt": 7042,
      "Crede": 7043,
      "apropie": 7044,
      "activităților": 7045,
      "formare": 7046,
      "Lă": 7047,
      "bas": 7048,
      "picioarele": 7049,
      "informațiilor": 7050,
      "acci": 7051,
      "găsește": 7052,
      "##ătrân": 7053,
      "hoteluri": 7054,
      "purta": 7055,
      "sănătății": 7056,
      "##cerea": 7057,
      "eval": 7058,
      "alerg": 7059,
      "confirm": 7060,
      "apropiat": 7061,
      "alegeri": 7062,
      "##șine": 7063,
      "##bar": 7064,
      "pînă": 7065,
      "plăcere": 7066,
      "53": 7067,
      "Cru": 7068,
      "roș": 7069,
      "CSM": 7070,
      "57": 7071,
      "tem": 7072,
      "actuale": 7073,
      "comite": 7074,
      "supraveghere": 7075,
      "Fer": 7076,
      "Robert": 7077,
      "gratuite": 7078,
      "muș": 7079,
      "arme": 7080,
      "##uiască": 7081,
      "limită": 7082,
      "înregistrate": 7083,
      "opinia": 7084,
      "tin": 7085,
      "difuz": 7086,
      "dator": 7087,
      "##alea": 7088,
      "ambasa": 7089,
      "inc": 7090,
      "##curilor": 7091,
      "Asa": 7092,
      "Neam": 7093,
      "Part": 7094,
      "##inare": 7095,
      "voastre": 7096,
      "producția": 7097,
      "Bră": 7098,
      "apropierea": 7099,
      "##cările": 7100,
      "doct": 7101,
      "sigură": 7102,
      "mobile": 7103,
      "răspunsul": 7104,
      "solicitat": 7105,
      "produsul": 7106,
      "private": 7107,
      "##oresc": 7108,
      "libertate": 7109,
      "cetățeni": 7110,
      "realizează": 7111,
      "stați": 7112,
      "sunat": 7113,
      "hră": 7114,
      "Odată": 7115,
      "campanie": 7116,
      "clienților": 7117,
      "propunerea": 7118,
      "nenor": 7119,
      "plastic": 7120,
      "dor": 7121,
      "Aprop": 7122,
      "stilul": 7123,
      "reveni": 7124,
      "demer": 7125,
      "PL": 7126,
      "energia": 7127,
      "legume": 7128,
      "construcții": 7129,
      "anumită": 7130,
      "durată": 7131,
      "autove": 7132,
      "limbă": 7133,
      "intim": 7134,
      "școli": 7135,
      "chirurg": 7136,
      "toata": 7137,
      "destinat": 7138,
      "##cesc": 7139,
      "##mili": 7140,
      "Carol": 7141,
      "##scrip": 7142,
      "inferi": 7143,
      "##șită": 7144,
      "funcționare": 7145,
      "redus": 7146,
      "99": 7147,
      "sublini": 7148,
      "seria": 7149,
      "necunos": 7150,
      "populația": 7151,
      "penală": 7152,
      "implicat": 7153,
      "Ape": 7154,
      "fotografie": 7155,
      "##rești": 7156,
      "itali": 7157,
      "decide": 7158,
      "oficială": 7159,
      "părțile": 7160,
      "ministrului": 7161,
      "informare": 7162,
      "##itată": 7163,
      "sect": 7164,
      "hârtie": 7165,
      "simple": 7166,
      "unică": 7167,
      "##cești": 7168,
      "Datori": 7169,
      "oaspe": 7170,
      "poporului": 7171,
      "reîn": 7172,
      "evenimentului": 7173,
      "aparține": 7174,
      "exterior": 7175,
      "patrimoni": 7176,
      "avantaj": 7177,
      "firme": 7178,
      "fiecărui": 7179,
      "coti": 7180,
      "scump": 7181,
      "Democ": 7182,
      "semnificativ": 7183,
      "Jack": 7184,
      "pagin": 7185,
      "școala": 7186,
      "##derii": 7187,
      "Bacă": 7188,
      "iată": 7189,
      "scrise": 7190,
      "plec": 7191,
      "substanțe": 7192,
      "condit": 7193,
      "##jelor": 7194,
      "centrale": 7195,
      "câștiga": 7196,
      "găsim": 7197,
      "##nie": 7198,
      "Ven": 7199,
      "Curții": 7200,
      "Gră": 7201,
      "Crist": 7202,
      "##omp": 7203,
      "evaluarea": 7204,
      "proasp": 7205,
      "##âmp": 7206,
      "##lubul": 7207,
      "băieți": 7208,
      "căutarea": 7209,
      "ministe": 7210,
      "conținutul": 7211,
      "pleacă": 7212,
      "posibilă": 7213,
      "Mot": 7214,
      "Comer": 7215,
      "împlin": 7216,
      "sacri": 7217,
      "inimă": 7218,
      "poporul": 7219,
      "sexuale": 7220,
      "circum": 7221,
      "Fier": 7222,
      "învăța": 7223,
      "Unele": 7224,
      "recu": 7225,
      "og": 7226,
      "depla": 7227,
      "Crezi": 7228,
      "declară": 7229,
      "##vață": 7230,
      "publicul": 7231,
      "noile": 7232,
      "fișiere": 7233,
      "dați": 7234,
      "instituțiilor": 7235,
      "##gon": 7236,
      "Viz": 7237,
      "##ociere": 7238,
      "Negru": 7239,
      "dificil": 7240,
      "Dă": 7241,
      "Del": 7242,
      "circulație": 7243,
      "##gem": 7244,
      "Foarte": 7245,
      "##inic": 7246,
      "trecerea": 7247,
      "corespunzător": 7248,
      "dezvoltării": 7249,
      "##urie": 7250,
      "##DEO": 7251,
      "lucrarea": 7252,
      "tim": 7253,
      "Sfin": 7254,
      "Publicat": 7255,
      "##nia": 7256,
      "sumă": 7257,
      "etapă": 7258,
      "nutri": 7259,
      "realizată": 7260,
      "##hă": 7261,
      "##atoarele": 7262,
      "copilă": 7263,
      "##ise": 7264,
      "64": 7265,
      "##șat": 7266,
      "ucra": 7267,
      "știa": 7268,
      "Spre": 7269,
      "Comitetul": 7270,
      "populare": 7271,
      "Cl": 7272,
      "pân": 7273,
      "Windows": 7274,
      "##ărarea": 7275,
      "##ons": 7276,
      "membrilor": 7277,
      "dovadă": 7278,
      "##tarul": 7279,
      "jucători": 7280,
      "Conta": 7281,
      "Gol": 7282,
      "clienții": 7283,
      "viteză": 7284,
      "posibile": 7285,
      "liderul": 7286,
      "element": 7287,
      "Plo": 7288,
      "CO": 7289,
      "duci": 7290,
      "civile": 7291,
      "Spitalul": 7292,
      "AM": 7293,
      "reducere": 7294,
      "sovie": 7295,
      "guvernului": 7296,
      "rata": 7297,
      "obligația": 7298,
      "cărei": 7299,
      "punctele": 7300,
      "56": 7301,
      "##ream": 7302,
      "concep": 7303,
      "depăși": 7304,
      "reme": 7305,
      "bord": 7306,
      "##ena": 7307,
      "##răj": 7308,
      "zahăr": 7309,
      "Tribun": 7310,
      "obișnuit": 7311,
      "permit": 7312,
      "schimbarea": 7313,
      "pagini": 7314,
      "comunică": 7315,
      "comunității": 7316,
      "##late": 7317,
      "încheie": 7318,
      "Ați": 7319,
      "analiză": 7320,
      "Mag": 7321,
      "ONU": 7322,
      "suprafața": 7323,
      "Având": 7324,
      "dorin": 7325,
      "bisericii": 7326,
      "Instant": 7327,
      "##odor": 7328,
      "##ȚI": 7329,
      "grad": 7330,
      "aca": 7331,
      "Mc": 7332,
      "chin": 7333,
      "minori": 7334,
      "gradul": 7335,
      "răb": 7336,
      "central": 7337,
      "acuz": 7338,
      "plece": 7339,
      "impresion": 7340,
      "atins": 7341,
      "##CI": 7342,
      "##ham": 7343,
      "cultura": 7344,
      "##oad": 7345,
      "șofer": 7346,
      "Sfântului": 7347,
      "avi": 7348,
      "##rescu": 7349,
      "legislația": 7350,
      "Sfânta": 7351,
      "##lină": 7352,
      "echipamente": 7353,
      "calității": 7354,
      "piatră": 7355,
      "Femei": 7356,
      "##ring": 7357,
      "Toată": 7358,
      "îmbunătățirea": 7359,
      "melod": 7360,
      "##tând": 7361,
      "reuni": 7362,
      "##siona": 7363,
      "##izată": 7364,
      "acuzat": 7365,
      "##zire": 7366,
      "intențion": 7367,
      "cursuri": 7368,
      "prezi": 7369,
      "##tene": 7370,
      "probe": 7371,
      "Dumitru": 7372,
      "bote": 7373,
      "late": 7374,
      "##ungi": 7375,
      "expune": 7376,
      "189": 7377,
      "Mesa": 7378,
      "##ântului": 7379,
      "greșe": 7380,
      "depre": 7381,
      "Oricum": 7382,
      "drăgu": 7383,
      "intitul": 7384,
      "##easca": 7385,
      "VIDEO": 7386,
      "sexy": 7387,
      "sold": 7388,
      "libertatea": 7389,
      "Kla": 7390,
      "structura": 7391,
      "evita": 7392,
      "##ight": 7393,
      "##oul": 7394,
      "aduse": 7395,
      "reven": 7396,
      "condamnat": 7397,
      "sinte": 7398,
      "Radio": 7399,
      "Serviciul": 7400,
      "Cos": 7401,
      "înscris": 7402,
      "95": 7403,
      "Polonia": 7404,
      "formarea": 7405,
      "cadou": 7406,
      "nas": 7407,
      "##ptam": 7408,
      "credința": 7409,
      "Olimp": 7410,
      "implementarea": 7411,
      "odih": 7412,
      "colegii": 7413,
      "Emine": 7414,
      "##gar": 7415,
      "consecință": 7416,
      "Bibliote": 7417,
      "abuz": 7418,
      "produsului": 7419,
      "catol": 7420,
      "inci": 7421,
      "înșel": 7422,
      "##ance": 7423,
      "Desigur": 7424,
      "ocupa": 7425,
      "Stea": 7426,
      "ilum": 7427,
      "Putem": 7428,
      "vedeți": 7429,
      "îngrijor": 7430,
      "lider": 7431,
      "organism": 7432,
      "##roc": 7433,
      "uim": 7434,
      "Stud": 7435,
      "Lice": 7436,
      "##pți": 7437,
      "revenit": 7438,
      "ușa": 7439,
      "numită": 7440,
      "bon": 7441,
      "software": 7442,
      "utiliza": 7443,
      "ieft": 7444,
      "întrebă": 7445,
      "##ciune": 7446,
      "Cartea": 7447,
      "trecute": 7448,
      "business": 7449,
      "comand": 7450,
      "##osof": 7451,
      "binecuvânt": 7452,
      "marginea": 7453,
      "Vest": 7454,
      "galben": 7455,
      "întorc": 7456,
      "punere": 7457,
      "Vine": 7458,
      "bunuri": 7459,
      "delic": 7460,
      "acceptat": 7461,
      "##sy": 7462,
      "management": 7463,
      "tara": 7464,
      "contractul": 7465,
      "creste": 7466,
      "Vre": 7467,
      "##ieze": 7468,
      "imobil": 7469,
      "seg": 7470,
      "includ": 7471,
      "standarde": 7472,
      "##istică": 7473,
      "Sil": 7474,
      "##lici": 7475,
      "pescuit": 7476,
      "părinților": 7477,
      "împuș": 7478,
      "##amentelor": 7479,
      "pr": 7480,
      "188": 7481,
      "Monitorul": 7482,
      "îndoi": 7483,
      "fic": 7484,
      "original": 7485,
      "##alelor": 7486,
      "Div": 7487,
      "lansarea": 7488,
      "electronice": 7489,
      "încet": 7490,
      "proiectele": 7491,
      "incluse": 7492,
      "aspectul": 7493,
      "Pract": 7494,
      "treacă": 7495,
      "##chia": 7496,
      "Prem": 7497,
      "inau": 7498,
      "Încer": 7499,
      "##oniale": 7500,
      "cultiv": 7501,
      "Fond": 7502,
      "##stel": 7503,
      "reda": 7504,
      "Gay": 7505,
      "noastra": 7506,
      "clienți": 7507,
      "militar": 7508,
      "publicate": 7509,
      "elevilor": 7510,
      "Asociației": 7511,
      "afectează": 7512,
      "##CA": 7513,
      "##MI": 7514,
      "elementele": 7515,
      "cancer": 7516,
      "hotărâre": 7517,
      "textul": 7518,
      "încânt": 7519,
      "Of": 7520,
      "CN": 7521,
      "integra": 7522,
      "##unda": 7523,
      "naturală": 7524,
      "by": 7525,
      "folosită": 7526,
      "##ferendu": 7527,
      "constatat": 7528,
      "cunoa": 7529,
      "PRO": 7530,
      "Mulți": 7531,
      "intamp": 7532,
      "Festivalul": 7533,
      "Zo": 7534,
      "AF": 7535,
      "relativ": 7536,
      "th": 7537,
      "femeilor": 7538,
      "civilă": 7539,
      "mal": 7540,
      "transportul": 7541,
      "Za": 7542,
      "##var": 7543,
      "prevăzută": 7544,
      "##sită": 7545,
      "Cana": 7546,
      "deschiderea": 7547,
      "neap": 7548,
      "##deap": 7549,
      "morm": 7550,
      "ox": 7551,
      "străine": 7552,
      "85": 7553,
      "câr": 7554,
      "gospo": 7555,
      "totdeauna": 7556,
      "linișt": 7557,
      "##lica": 7558,
      "Aproape": 7559,
      "citate": 7560,
      "demonstrat": 7561,
      "Tudor": 7562,
      "##rente": 7563,
      "pozitiv": 7564,
      "fib": 7565,
      "tradiționale": 7566,
      "sfin": 7567,
      "bolnav": 7568,
      "teste": 7569,
      "Cip": 7570,
      "##iența": 7571,
      "juridică": 7572,
      "autorul": 7573,
      "primește": 7574,
      "știam": 7575,
      "##peni": 7576,
      "mesajul": 7577,
      "Două": 7578,
      "hai": 7579,
      "Vladim": 7580,
      "sprijini": 7581,
      "##dii": 7582,
      "##ood": 7583,
      "Stra": 7584,
      "Facultatea": 7585,
      "scrisă": 7586,
      "invitat": 7587,
      "atel": 7588,
      "##mail": 7589,
      "##steri": 7590,
      "forța": 7591,
      "Dece": 7592,
      "individual": 7593,
      "##tel": 7594,
      "organizații": 7595,
      "Lit": 7596,
      "păcat": 7597,
      "găsească": 7598,
      "##buri": 7599,
      "##ariile": 7600,
      "etapa": 7601,
      "##rările": 7602,
      "energiei": 7603,
      "prețuri": 7604,
      "##cire": 7605,
      "XI": 7606,
      "punem": 7607,
      "acordarea": 7608,
      "accepta": 7609,
      "Ple": 7610,
      "Hen": 7611,
      "##rimoniale": 7612,
      "fig": 7613,
      "250": 7614,
      "Galați": 7615,
      "##TE": 7616,
      "caracteri": 7617,
      "##itatii": 7618,
      "gest": 7619,
      "Eminescu": 7620,
      "##MA": 7621,
      "perfectă": 7622,
      "Dor": 7623,
      "##ril": 7624,
      "Evan": 7625,
      "Lasă": 7626,
      "Top": 7627,
      "buzun": 7628,
      "comentarii": 7629,
      "##istic": 7630,
      "semnal": 7631,
      "discuta": 7632,
      "vorbești": 7633,
      "spani": 7634,
      "bran": 7635,
      "##rator": 7636,
      "aparte": 7637,
      "Partidul": 7638,
      "consumul": 7639,
      "sarcin": 7640,
      "pornit": 7641,
      "##jeze": 7642,
      "clasă": 7643,
      "invest": 7644,
      "exten": 7645,
      "corectă": 7646,
      "cresc": 7647,
      "ax": 7648,
      "făce": 7649,
      "marketing": 7650,
      "părul": 7651,
      "Numărul": 7652,
      "capacitate": 7653,
      "coleg": 7654,
      "Sunteți": 7655,
      "chem": 7656,
      "RO": 7657,
      "personalului": 7658,
      "cald": 7659,
      "vizează": 7660,
      "Sof": 7661,
      "iP": 7662,
      "dispărut": 7663,
      "##orile": 7664,
      "##gie": 7665,
      "##ritatea": 7666,
      "Noul": 7667,
      "Bacău": 7668,
      "îndre": 7669,
      "virt": 7670,
      "Gabriel": 7671,
      "##parta": 7672,
      "Băn": 7673,
      "incredi": 7674,
      "dezvălu": 7675,
      "costurile": 7676,
      "povesti": 7677,
      "##siți": 7678,
      "##țează": 7679,
      "##dării": 7680,
      "bule": 7681,
      "reabil": 7682,
      "găsești": 7683,
      "comandă": 7684,
      "sigura": 7685,
      "Interpre": 7686,
      "tal": 7687,
      "înțelegere": 7688,
      "##smul": 7689,
      "electrică": 7690,
      "Trump": 7691,
      "pregătire": 7692,
      "##ep": 7693,
      "tehnologie": 7694,
      "##năstirea": 7695,
      "purtă": 7696,
      "prietenul": 7697,
      "oficiale": 7698,
      "Petro": 7699,
      "participă": 7700,
      "accele": 7701,
      "CF": 7702,
      "Don": 7703,
      "##atice": 7704,
      "Africa": 7705,
      "capt": 7706,
      "prov": 7707,
      "##ștept": 7708,
      "conver": 7709,
      "primii": 7710,
      "fum": 7711,
      "Ghi": 7712,
      "audit": 7713,
      "secțiunea": 7714,
      "relevante": 7715,
      "spăl": 7716,
      "##inilor": 7717,
      "oferin": 7718,
      "frecvent": 7719,
      "regist": 7720,
      "##stie": 7721,
      "reprezentat": 7722,
      "făcând": 7723,
      "ordinea": 7724,
      "Social": 7725,
      "ruga": 7726,
      "voturi": 7727,
      "dulce": 7728,
      "răspând": 7729,
      "mur": 7730,
      "științifice": 7731,
      "declarație": 7732,
      "medi": 7733,
      "vaccin": 7734,
      "Asig": 7735,
      "vicepreședin": 7736,
      "ședința": 7737,
      "faza": 7738,
      "titul": 7739,
      "Alt": 7740,
      "Prof": 7741,
      "spiritul": 7742,
      "Departa": 7743,
      "58": 7744,
      "Târgu": 7745,
      "autost": 7746,
      "Partea": 7747,
      "criză": 7748,
      "galerie": 7749,
      "##state": 7750,
      "Dupa": 7751,
      "Macedon": 7752,
      "Mihail": 7753,
      "arate": 7754,
      "arbit": 7755,
      "##ferința": 7756,
      "dle": 7757,
      "denumirea": 7758,
      "culoarea": 7759,
      "actuală": 7760,
      "##intei": 7761,
      "investit": 7762,
      "sală": 7763,
      "performanță": 7764,
      "gun": 7765,
      "tânără": 7766,
      "##ografia": 7767,
      "discutat": 7768,
      "##cla": 7769,
      "Klaus": 7770,
      "festival": 7771,
      "votat": 7772,
      "Acolo": 7773,
      "varianta": 7774,
      "##ith": 7775,
      "armon": 7776,
      "Air": 7777,
      "Școl": 7778,
      "AT": 7779,
      "Apost": 7780,
      "milion": 7781,
      "Micro": 7782,
      "obținerea": 7783,
      "Oc": 7784,
      "gratis": 7785,
      "poet": 7786,
      "înte": 7787,
      "deplin": 7788,
      "conforta": 7789,
      "##râ": 7790,
      "trime": 7791,
      "##lina": 7792,
      "combu": 7793,
      "străini": 7794,
      "achiz": 7795,
      "școlar": 7796,
      "##ad": 7797,
      "##ilul": 7798,
      "lăm": 7799,
      "Dezvoltare": 7800,
      "Moscova": 7801,
      "dezvolta": 7802,
      "promovare": 7803,
      "majore": 7804,
      "##elul": 7805,
      "comercial": 7806,
      "ȘI": 7807,
      "inteli": 7808,
      "serve": 7809,
      "provo": 7810,
      "parf": 7811,
      "populație": 7812,
      "constant": 7813,
      "em": 7814,
      "noului": 7815,
      "preot": 7816,
      "Urm": 7817,
      "premii": 7818,
      "siguranța": 7819,
      "suprafe": 7820,
      "profesioni": 7821,
      "##larea": 7822,
      "ton": 7823,
      "Ide": 7824,
      "##ji": 7825,
      "numărului": 7826,
      "navig": 7827,
      "Emil": 7828,
      "Fiul": 7829,
      "studenți": 7830,
      "intervenție": 7831,
      "Den": 7832,
      "rig": 7833,
      "cada": 7834,
      "sora": 7835,
      "usor": 7836,
      "inculp": 7837,
      "afacere": 7838,
      "Sistemul": 7839,
      "Interne": 7840,
      "regiuni": 7841,
      "##muri": 7842,
      "clasi": 7843,
      "nave": 7844,
      "Palatul": 7845,
      "asigur": 7846,
      "##pu": 7847,
      "##teva": 7848,
      "acțiunea": 7849,
      "îndrăz": 7850,
      "##iss": 7851,
      "Matei": 7852,
      "angaja": 7853,
      "67": 7854,
      "reprezentanți": 7855,
      "##berg": 7856,
      "decen": 7857,
      "##ătoarea": 7858,
      "smart": 7859,
      "beneficiază": 7860,
      "##chiul": 7861,
      "##iam": 7862,
      "întreagă": 7863,
      "##stre": 7864,
      "Teatrul": 7865,
      "flex": 7866,
      "##ovici": 7867,
      "##ficării": 7868,
      "##PS": 7869,
      "deosebire": 7870,
      "egal": 7871,
      "##ntin": 7872,
      "Grup": 7873,
      "##DA": 7874,
      "##țați": 7875,
      "Club": 7876,
      "##imi": 7877,
      "părere": 7878,
      "##ceanu": 7879,
      "realitatea": 7880,
      "refuzat": 7881,
      "##ney": 7882,
      "##isme": 7883,
      "prezentului": 7884,
      "administrativ": 7885,
      "tar": 7886,
      "deranj": 7887,
      "sănătos": 7888,
      "##țu": 7889,
      "duhov": 7890,
      "bucure": 7891,
      "##stem": 7892,
      "reținut": 7893,
      "metodă": 7894,
      "relu": 7895,
      "##spon": 7896,
      "SM": 7897,
      "##chilor": 7898,
      "mandat": 7899,
      "relat": 7900,
      "pierderea": 7901,
      "partidului": 7902,
      "închise": 7903,
      "albă": 7904,
      "Haide": 7905,
      "Ascul": 7906,
      "romane": 7907,
      "Film": 7908,
      "nota": 7909,
      "##ortă": 7910,
      "prelung": 7911,
      "principală": 7912,
      "##sula": 7913,
      "pline": 7914,
      "Elect": 7915,
      "penale": 7916,
      "Filme": 7917,
      "asigurare": 7918,
      "Marin": 7919,
      "##cutiv": 7920,
      "documentele": 7921,
      "show": 7922,
      "##aneu": 7923,
      "##iatul": 7924,
      "spiritual": 7925,
      "cooperare": 7926,
      "##mântul": 7927,
      "apărea": 7928,
      "aruncat": 7929,
      "##cțiunii": 7930,
      "persoanei": 7931,
      "țină": 7932,
      "nevoile": 7933,
      "înm": 7934,
      "încerc": 7935,
      "##30": 7936,
      "##mulț": 7937,
      "înregistrare": 7938,
      "##ceput": 7939,
      "Botoș": 7940,
      "componente": 7941,
      "##itați": 7942,
      "minci": 7943,
      "slab": 7944,
      "stabili": 7945,
      "Sy": 7946,
      "Buză": 7947,
      "cunoștință": 7948,
      "lucrul": 7949,
      "table": 7950,
      "Une": 7951,
      "arata": 7952,
      "ghe": 7953,
      "Păsă": 7954,
      "ceai": 7955,
      "influența": 7956,
      "##fie": 7957,
      "##zece": 7958,
      "##osex": 7959,
      "59": 7960,
      "##deze": 7961,
      "aplicat": 7962,
      "dispus": 7963,
      "800": 7964,
      "##stanta": 7965,
      "sportive": 7966,
      "##vis": 7967,
      "Vei": 7968,
      "sume": 7969,
      "Dina": 7970,
      "concept": 7971,
      "francez": 7972,
      "parcare": 7973,
      "##pro": 7974,
      "##orld": 7975,
      "stres": 7976,
      "##ozitate": 7977,
      "Regulamentului": 7978,
      "generație": 7979,
      "petrecere": 7980,
      "##ondiale": 7981,
      "învață": 7982,
      "pedeap": 7983,
      "Direcția": 7984,
      "dublu": 7985,
      "liceu": 7986,
      "##orb": 7987,
      "Popul": 7988,
      "indică": 7989,
      "Comitetului": 7990,
      "##biei": 7991,
      "citi": 7992,
      "Sar": 7993,
      "introducerea": 7994,
      "Gala": 7995,
      "##cină": 7996,
      "Bist": 7997,
      "importanță": 7998,
      "Lea": 7999,
      "grele": 8000,
      "grija": 8001,
      "legislației": 8002,
      "##omosex": 8003,
      "Mastur": 8004,
      "eliminarea": 8005,
      "contine": 8006,
      "pachet": 8007,
      "Arge": 8008,
      "regimul": 8009,
      "țes": 8010,
      "fasc": 8011,
      "dese": 8012,
      "neapărat": 8013,
      "tan": 8014,
      "aplicații": 8015,
      "ful": 8016,
      "locali": 8017,
      "societăți": 8018,
      "aflu": 8019,
      "nebun": 8020,
      "recep": 8021,
      "creativ": 8022,
      "fl": 8023,
      "teamă": 8024,
      "##ULUI": 8025,
      "famili": 8026,
      "neagră": 8027,
      "apărare": 8028,
      "ho": 8029,
      "##ografice": 8030,
      "Poliția": 8031,
      "semi": 8032,
      "trag": 8033,
      "rădă": 8034,
      "țâ": 8035,
      "ascuns": 8036,
      "centrală": 8037,
      "asigurări": 8038,
      "Grig": 8039,
      "gură": 8040,
      "Noua": 8041,
      "deri": 8042,
      "obiectivele": 8043,
      "ședință": 8044,
      "flux": 8045,
      "stabilește": 8046,
      "cape": 8047,
      "apartament": 8048,
      "internă": 8049,
      "asociate": 8050,
      "individuale": 8051,
      "Sha": 8052,
      "specialiști": 8053,
      "întî": 8054,
      "acordate": 8055,
      "căutare": 8056,
      "transformat": 8057,
      "dre": 8058,
      "urmărit": 8059,
      "conflict": 8060,
      "economie": 8061,
      "prezentare": 8062,
      "jocurile": 8063,
      "bazează": 8064,
      "ridicate": 8065,
      "condiția": 8066,
      "utilizatorilor": 8067,
      "Căci": 8068,
      "adulți": 8069,
      "negativ": 8070,
      "sentiment": 8071,
      "băiat": 8072,
      "##uirii": 8073,
      "##alim": 8074,
      "Gor": 8075,
      "Declar": 8076,
      "susținerea": 8077,
      "academ": 8078,
      "admite": 8079,
      "citesc": 8080,
      "Dep": 8081,
      "considerată": 8082,
      "competit": 8083,
      "Mel": 8084,
      "120": 8085,
      "utila": 8086,
      "Put": 8087,
      "porți": 8088,
      "vorbă": 8089,
      "##zil": 8090,
      "construcție": 8091,
      "Austria": 8092,
      "tone": 8093,
      "##ski": 8094,
      "popor": 8095,
      "##ony": 8096,
      "##uat": 8097,
      "pietre": 8098,
      "##trem": 8099,
      "ruse": 8100,
      "Peter": 8101,
      "boala": 8102,
      "Elve": 8103,
      "definitiv": 8104,
      "##gor": 8105,
      "știri": 8106,
      "efectuează": 8107,
      "prezentei": 8108,
      "##șn": 8109,
      "##fele": 8110,
      "Iub": 8111,
      "decît": 8112,
      "negative": 8113,
      "judecăt": 8114,
      "##sac": 8115,
      "##șească": 8116,
      "schimbări": 8117,
      "insufic": 8118,
      "marele": 8119,
      "##rite": 8120,
      "Ovi": 8121,
      "creează": 8122,
      "##vant": 8123,
      "##andu": 8124,
      "##rurile": 8125,
      "lichid": 8126,
      "fondul": 8127,
      "pasion": 8128,
      "ferea": 8129,
      "pod": 8130,
      "Tă": 8131,
      "Educației": 8132,
      "recomandat": 8133,
      "##gare": 8134,
      "cărțile": 8135,
      "amenință": 8136,
      "salva": 8137,
      "pronun": 8138,
      "##ătatea": 8139,
      "Times": 8140,
      "varie": 8141,
      "Uneori": 8142,
      "altora": 8143,
      "purtat": 8144,
      "nevoi": 8145,
      "##serv": 8146,
      "manager": 8147,
      "lac": 8148,
      "##oga": 8149,
      "##ologii": 8150,
      "împlini": 8151,
      "primite": 8152,
      "arta": 8153,
      "Micha": 8154,
      "gamă": 8155,
      "##nd": 8156,
      "##zeze": 8157,
      "îndrept": 8158,
      "##udă": 8159,
      "##lome": 8160,
      "apele": 8161,
      "Bol": 8162,
      "##buc": 8163,
      "Mult": 8164,
      "Muz": 8165,
      "nis": 8166,
      "droguri": 8167,
      "##chea": 8168,
      "66": 8169,
      "##diilor": 8170,
      "cheltuielile": 8171,
      "proiectelor": 8172,
      "educat": 8173,
      "limbi": 8174,
      "inva": 8175,
      "Americii": 8176,
      "viteza": 8177,
      "celul": 8178,
      "bea": 8179,
      "Bos": 8180,
      "##vil": 8181,
      "comunitatea": 8182,
      "Ero": 8183,
      "localitate": 8184,
      "evoluția": 8185,
      "prevenirea": 8186,
      "##24": 8187,
      "LA": 8188,
      "ducă": 8189,
      "notific": 8190,
      "principalele": 8191,
      "religioase": 8192,
      "eficientă": 8193,
      "##imă": 8194,
      "implicate": 8195,
      "##SP": 8196,
      "climat": 8197,
      "protest": 8198,
      "entuzia": 8199,
      "##if": 8200,
      "bucătărie": 8201,
      "Energ": 8202,
      "Star": 8203,
      "ini": 8204,
      "##duit": 8205,
      "sublin": 8206,
      "Super": 8207,
      "despărți": 8208,
      "cuprinse": 8209,
      "Cha": 8210,
      "cheltuieli": 8211,
      "Frank": 8212,
      "Ior": 8213,
      "Er": 8214,
      "lucrare": 8215,
      "franceză": 8216,
      "potențial": 8217,
      "##ts": 8218,
      "##stan": 8219,
      "factori": 8220,
      "favora": 8221,
      "##stia": 8222,
      "restri": 8223,
      "perspectiva": 8224,
      "Botoșani": 8225,
      "##udici": 8226,
      "oferim": 8227,
      "roșii": 8228,
      "##yer": 8229,
      "trupul": 8230,
      "##ick": 8231,
      "acelui": 8232,
      "##phone": 8233,
      "potrive": 8234,
      "proba": 8235,
      "##SS": 8236,
      "didactice": 8237,
      "##onală": 8238,
      "dispozițiile": 8239,
      "îndepline": 8240,
      "Centrului": 8241,
      "competente": 8242,
      "inaug": 8243,
      "cra": 8244,
      "##uării": 8245,
      "evenimentul": 8246,
      "Viața": 8247,
      "ol": 8248,
      "importanța": 8249,
      "inclus": 8250,
      "efectul": 8251,
      "percep": 8252,
      "temperatura": 8253,
      "sfer": 8254,
      "deosebită": 8255,
      "##cineva": 8256,
      "German": 8257,
      "##top": 8258,
      "desf": 8259,
      "țăr": 8260,
      "diferența": 8261,
      "Grupul": 8262,
      "aceia": 8263,
      "modificat": 8264,
      "Wi": 8265,
      "##FA": 8266,
      "vop": 8267,
      "187": 8268,
      "##stal": 8269,
      "tablo": 8270,
      "vreți": 8271,
      "scrisoare": 8272,
      "șanse": 8273,
      "furat": 8274,
      "taxe": 8275,
      "presiune": 8276,
      "mix": 8277,
      "Partidului": 8278,
      "suferă": 8279,
      "cot": 8280,
      "elega": 8281,
      "preferat": 8282,
      "parale": 8283,
      "rede": 8284,
      "##arma": 8285,
      "tratamentului": 8286,
      "manipul": 8287,
      "întrebarea": 8288,
      "dăru": 8289,
      "prăj": 8290,
      "efectuarea": 8291,
      "anterioare": 8292,
      "evre": 8293,
      "reguli": 8294,
      "mutat": 8295,
      "mane": 8296,
      "medii": 8297,
      "prinde": 8298,
      "instanță": 8299,
      "exercit": 8300,
      "Transport": 8301,
      "puteti": 8302,
      "tehnici": 8303,
      "imperi": 8304,
      "răni": 8305,
      "cã": 8306,
      "Fac": 8307,
      "Cătă": 8308,
      "off": 8309,
      "studiile": 8310,
      "sună": 8311,
      "Gale": 8312,
      "##ude": 8313,
      "ies": 8314,
      "##anci": 8315,
      "pomp": 8316,
      "Fată": 8317,
      "spectacul": 8318,
      "singuri": 8319,
      "Direcției": 8320,
      "legată": 8321,
      "bebelu": 8322,
      "germană": 8323,
      "Ierus": 8324,
      "Sorin": 8325,
      "Evanghel": 8326,
      "##acolul": 8327,
      "toamnă": 8328,
      "schi": 8329,
      "cos": 8330,
      "dezamă": 8331,
      "##otice": 8332,
      "cazurile": 8333,
      "scuze": 8334,
      "simpli": 8335,
      "Câmp": 8336,
      "##idenți": 8337,
      "vorbească": 8338,
      "pisc": 8339,
      "bucură": 8340,
      "muscul": 8341,
      "morții": 8342,
      "căutat": 8343,
      "hand": 8344,
      "Orie": 8345,
      "imobili": 8346,
      "##rute": 8347,
      "organe": 8348,
      "##mulțum": 8349,
      "superioară": 8350,
      "necesitatea": 8351,
      "mesaje": 8352,
      "rețeaua": 8353,
      "rar": 8354,
      "arma": 8355,
      "Vâl": 8356,
      "Cazare": 8357,
      "##tan": 8358,
      "sor": 8359,
      "Read": 8360,
      "asum": 8361,
      "administrației": 8362,
      "promisi": 8363,
      "recunosc": 8364,
      "##uim": 8365,
      "interzis": 8366,
      "##ical": 8367,
      "exprimat": 8368,
      "medicament": 8369,
      "incon": 8370,
      "evenimentele": 8371,
      "tea": 8372,
      "##ionul": 8373,
      "##cau": 8374,
      "##21": 8375,
      "referendu": 8376,
      "CON": 8377,
      "Scu": 8378,
      "oriunde": 8379,
      "tent": 8380,
      "##enii": 8381,
      "##zu": 8382,
      "Copiii": 8383,
      "##gaj": 8384,
      "ridicată": 8385,
      "plăcea": 8386,
      "oricând": 8387,
      "Eugen": 8388,
      "News": 8389,
      "comportament": 8390,
      "teore": 8391,
      "Răspun": 8392,
      "restaurant": 8393,
      "cabine": 8394,
      "dovede": 8395,
      "carieră": 8396,
      "personalul": 8397,
      "faca": 8398,
      "colegi": 8399,
      "practica": 8400,
      "terțe": 8401,
      "comparativ": 8402,
      "instituției": 8403,
      "subiectul": 8404,
      "Academiei": 8405,
      "atribui": 8406,
      "ouă": 8407,
      "Justiției": 8408,
      "bron": 8409,
      "șansa": 8410,
      "statutul": 8411,
      "păstrează": 8412,
      "alegere": 8413,
      "atâtea": 8414,
      "obligatoriu": 8415,
      "direcția": 8416,
      "Prie": 8417,
      "Cineva": 8418,
      "##zinta": 8419,
      "Justiție": 8420,
      "##teni": 8421,
      "Marian": 8422,
      "pătrun": 8423,
      "organizare": 8424,
      "Fra": 8425,
      "ascunde": 8426,
      "##țire": 8427,
      "suspect": 8428,
      "prețurile": 8429,
      "bugetului": 8430,
      "Ierusalim": 8431,
      "##her": 8432,
      "##fir": 8433,
      "participare": 8434,
      "credem": 8435,
      "Sexuale": 8436,
      "Imperi": 8437,
      "COM": 8438,
      "spuse": 8439,
      "companiile": 8440,
      "Black": 8441,
      "retro": 8442,
      "vârf": 8443,
      "Teen": 8444,
      "eforturile": 8445,
      "dispoziția": 8446,
      "rau": 8447,
      "combusti": 8448,
      "esențiale": 8449,
      "album": 8450,
      "prăbu": 8451,
      "întregii": 8452,
      "campania": 8453,
      "##ocam": 8454,
      "urban": 8455,
      "ofera": 8456,
      "domnului": 8457,
      "introdus": 8458,
      "##ronom": 8459,
      "arhe": 8460,
      "Premiul": 8461,
      "sără": 8462,
      "zgom": 8463,
      "fișier": 8464,
      "integral": 8465,
      "instituție": 8466,
      "încheierea": 8467,
      "dejun": 8468,
      "scopuri": 8469,
      "ese": 8470,
      "altcineva": 8471,
      "Marii": 8472,
      "Deoarece": 8473,
      "Urgență": 8474,
      "cariera": 8475,
      "max": 8476,
      "republic": 8477,
      "dureri": 8478,
      "terenul": 8479,
      "Vladimir": 8480,
      "etape": 8481,
      "##neg": 8482,
      "directă": 8483,
      "iese": 8484,
      "Primăriei": 8485,
      "subliniat": 8486,
      "ură": 8487,
      "##SA": 8488,
      "Turi": 8489,
      "Michael": 8490,
      "eficiente": 8491,
      "onoare": 8492,
      "pension": 8493,
      "pădure": 8494,
      "codul": 8495,
      "albastru": 8496,
      "Parche": 8497,
      "Aj": 8498,
      "186": 8499,
      "Men": 8500,
      "##crimin": 8501,
      "interese": 8502,
      "parțial": 8503,
      "fetele": 8504,
      "linguri": 8505,
      "##dro": 8506,
      "Scopul": 8507,
      "##cy": 8508,
      "City": 8509,
      "iasă": 8510,
      "constată": 8511,
      "degetele": 8512,
      "diagnostic": 8513,
      "##peut": 8514,
      "##my": 8515,
      "Ros": 8516,
      "munc": 8517,
      "masina": 8518,
      "administrative": 8519,
      "tat": 8520,
      "preluat": 8521,
      "##aniilor": 8522,
      "trăim": 8523,
      "weekend": 8524,
      "##oriu": 8525,
      "bogat": 8526,
      "perioadei": 8527,
      "considerate": 8528,
      "trăiește": 8529,
      "Nimic": 8530,
      "preocup": 8531,
      "cami": 8532,
      "##gure": 8533,
      "##roportul": 8534,
      "##stine": 8535,
      "perioade": 8536,
      "treze": 8537,
      "##ande": 8538,
      "contracte": 8539,
      "brut": 8540,
      "respectă": 8541,
      "cupt": 8542,
      "Indust": 8543,
      "americane": 8544,
      "invitați": 8545,
      "privată": 8546,
      "cumpăra": 8547,
      "Cam": 8548,
      "abu": 8549,
      "##rind": 8550,
      "##âie": 8551,
      "comentariu": 8552,
      "rand": 8553,
      "Gratuit": 8554,
      "##wer": 8555,
      "rapoarte": 8556,
      "primului": 8557,
      "parlamentare": 8558,
      "atras": 8559,
      "Tip": 8560,
      "Ambasa": 8561,
      "1998": 8562,
      "istoriei": 8563,
      "acceptă": 8564,
      "Pune": 8565,
      "##ficată": 8566,
      "feminin": 8567,
      "Începând": 8568,
      "PC": 8569,
      "apară": 8570,
      "aflată": 8571,
      "turistice": 8572,
      "##scrie": 8573,
      "așteptăm": 8574,
      "mis": 8575,
      "##geți": 8576,
      "1000": 8577,
      "confirmat": 8578,
      "profesori": 8579,
      "poezii": 8580,
      "Data": 8581,
      "forței": 8582,
      "deop": 8583,
      "înfă": 8584,
      "electro": 8585,
      "##cească": 8586,
      "artiști": 8587,
      "Baia": 8588,
      "##pera": 8589,
      "Var": 8590,
      "##mentează": 8591,
      "##ington": 8592,
      "paș": 8593,
      "Interpretarea": 8594,
      "esc": 8595,
      "##smului": 8596,
      "voc": 8597,
      "##urgh": 8598,
      "##roasă": 8599,
      "economia": 8600,
      "motor": 8601,
      "măsurilor": 8602,
      "comparație": 8603,
      "felic": 8604,
      "activă": 8605,
      "fine": 8606,
      "comunitate": 8607,
      "ăștia": 8608,
      "capitolul": 8609,
      "menținerea": 8610,
      "Datorită": 8611,
      "spații": 8612,
      "ind": 8613,
      "Aceștia": 8614,
      "contribui": 8615,
      "alea": 8616,
      "International": 8617,
      "##țurile": 8618,
      "Dans": 8619,
      "Maram": 8620,
      "evacu": 8621,
      "Constru": 8622,
      "rezolu": 8623,
      "cantitate": 8624,
      "Mine": 8625,
      "Securitate": 8626,
      "Vir": 8627,
      "61": 8628,
      "Rusiei": 8629,
      "lase": 8630,
      "capabil": 8631,
      "răm": 8632,
      "ascultă": 8633,
      "contest": 8634,
      "partide": 8635,
      "sun": 8636,
      "consilier": 8637,
      "cinemat": 8638,
      "părăsit": 8639,
      "conduc": 8640,
      "slujba": 8641,
      "ieș": 8642,
      "polițiști": 8643,
      "aflăm": 8644,
      "identitate": 8645,
      "prezentarea": 8646,
      "normele": 8647,
      "guvernament": 8648,
      "omule": 8649,
      "fanta": 8650,
      "revine": 8651,
      "zăpa": 8652,
      "determinat": 8653,
      "încercare": 8654,
      "culturii": 8655,
      "spă": 8656,
      "##uiește": 8657,
      "##oo": 8658,
      "Anglia": 8659,
      "Home": 8660,
      "##cțiunilor": 8661,
      "##tica": 8662,
      "hol": 8663,
      "standar": 8664,
      "ajungi": 8665,
      "specialist": 8666,
      "conv": 8667,
      "chemat": 8668,
      "păstra": 8669,
      "răn": 8670,
      "conceput": 8671,
      "remarca": 8672,
      "spectacole": 8673,
      "găsiți": 8674,
      "perman": 8675,
      "stre": 8676,
      "bucuria": 8677,
      "Stri": 8678,
      "guvernare": 8679,
      "reține": 8680,
      "adânci": 8681,
      "##matricul": 8682,
      "resurselor": 8683,
      "##hei": 8684,
      "##oaca": 8685,
      "clădiri": 8686,
      "utile": 8687,
      "jucător": 8688,
      "DN": 8689,
      "UP": 8690,
      "clipă": 8691,
      "tatălui": 8692,
      "Sănătății": 8693,
      "morți": 8694,
      "##ocurilor": 8695,
      "##EG": 8696,
      "##zont": 8697,
      "săvârși": 8698,
      "preala": 8699,
      "Nov": 8700,
      "##hor": 8701,
      "Citeste": 8702,
      "Fierb": 8703,
      "##gub": 8704,
      "Mad": 8705,
      "discre": 8706,
      "moldoven": 8707,
      "terori": 8708,
      "amân": 8709,
      "Polițiștii": 8710,
      "Țara": 8711,
      "fiți": 8712,
      "efectiv": 8713,
      "fiscală": 8714,
      "She": 8715,
      "coș": 8716,
      "vrăj": 8717,
      "modal": 8718,
      "pof": 8719,
      "coe": 8720,
      "sincer": 8721,
      "condițiilor": 8722,
      "##gând": 8723,
      "hepat": 8724,
      "jurnalist": 8725,
      "civiliz": 8726,
      "conexi": 8727,
      "luată": 8728,
      "arte": 8729,
      "##znic": 8730,
      "##bet": 8731,
      "lungime": 8732,
      "Lig": 8733,
      "valor": 8734,
      "tron": 8735,
      "Poliției": 8736,
      "##qu": 8737,
      "toamna": 8738,
      "biroul": 8739,
      "revista": 8740,
      "voluntari": 8741,
      "metoda": 8742,
      "consta": 8743,
      "magist": 8744,
      "Asia": 8745,
      "ajungem": 8746,
      "plătească": 8747,
      "profund": 8748,
      "##verin": 8749,
      "sarcina": 8750,
      "##urați": 8751,
      "Sân": 8752,
      "întregul": 8753,
      "juridic": 8754,
      "independent": 8755,
      "secole": 8756,
      "nemulțum": 8757,
      "Bbw": 8758,
      "Croația": 8759,
      "Noa": 8760,
      "line": 8761,
      "răma": 8762,
      "viu": 8763,
      "legen": 8764,
      "tort": 8765,
      "înțeleagă": 8766,
      "potrivită": 8767,
      "Bob": 8768,
      "##rând": 8769,
      "Eram": 8770,
      "presedin": 8771,
      "##igen": 8772,
      "##lele": 8773,
      "vali": 8774,
      "pusă": 8775,
      "inainte": 8776,
      "esențial": 8777,
      "##jute": 8778,
      "unitatea": 8779,
      "intervalul": 8780,
      "prezinte": 8781,
      "isp": 8782,
      "puțină": 8783,
      "##cționat": 8784,
      "maximum": 8785,
      "viol": 8786,
      "dreaptă": 8787,
      "abordare": 8788,
      "##oză": 8789,
      "explor": 8790,
      "pământul": 8791,
      "discurs": 8792,
      "atitudine": 8793,
      "obligat": 8794,
      "Steaua": 8795,
      "marile": 8796,
      "Sara": 8797,
      "soi": 8798,
      "##nes": 8799,
      "îngro": 8800,
      "îndrăg": 8801,
      "cutrem": 8802,
      "ipote": 8803,
      "os": 8804,
      "schimbe": 8805,
      "amândoi": 8806,
      "Ploiești": 8807,
      "cli": 8808,
      "##xe": 8809,
      "îndoială": 8810,
      "##anca": 8811,
      "misiune": 8812,
      "##iep": 8813,
      "niste": 8814,
      "lași": 8815,
      "Neamț": 8816,
      "gândul": 8817,
      "exter": 8818,
      "decizi": 8819,
      "bere": 8820,
      "Majoritatea": 8821,
      "separat": 8822,
      "##izării": 8823,
      "vândut": 8824,
      "##umele": 8825,
      "ire": 8826,
      "Lip": 8827,
      "Colegiul": 8828,
      "bet": 8829,
      "modernă": 8830,
      "##OTO": 8831,
      "Lucian": 8832,
      "Patriarh": 8833,
      "majori": 8834,
      "Rich": 8835,
      "radic": 8836,
      "sistemele": 8837,
      "administrare": 8838,
      "##rel": 8839,
      "curtea": 8840,
      "fan": 8841,
      "greșeală": 8842,
      "##bilității": 8843,
      "comb": 8844,
      "căpit": 8845,
      "##ceni": 8846,
      "##CT": 8847,
      "sul": 8848,
      "trezit": 8849,
      "reședin": 8850,
      "##chete": 8851,
      "executiv": 8852,
      "furi": 8853,
      "##wnl": 8854,
      "însăr": 8855,
      "create": 8856,
      "confort": 8857,
      "aplicate": 8858,
      "planuri": 8859,
      "romant": 8860,
      "automo": 8861,
      "capitala": 8862,
      "##țiunea": 8863,
      "bor": 8864,
      "drumuri": 8865,
      "veniturile": 8866,
      "competiție": 8867,
      "determina": 8868,
      "școlii": 8869,
      "tenis": 8870,
      "record": 8871,
      "indicat": 8872,
      "născu": 8873,
      "cuant": 8874,
      "forțele": 8875,
      "manual": 8876,
      "Săn": 8877,
      "India": 8878,
      "lo": 8879,
      "acelor": 8880,
      "##nera": 8881,
      "primei": 8882,
      "##veze": 8883,
      "Plat": 8884,
      "ridica": 8885,
      "asigurat": 8886,
      "##onald": 8887,
      "Luca": 8888,
      "ed": 8889,
      "malul": 8890,
      "##ricol": 8891,
      "observa": 8892,
      "europeni": 8893,
      "victime": 8894,
      "##IR": 8895,
      "start": 8896,
      "conferință": 8897,
      "utilizați": 8898,
      "##nire": 8899,
      "student": 8900,
      "portoc": 8901,
      "sfaturi": 8902,
      "anticip": 8903,
      "meciuri": 8904,
      "##cam": 8905,
      "##opere": 8906,
      "##aliștilor": 8907,
      "bărbatul": 8908,
      "##inarea": 8909,
      "Nou": 8910,
      "##zo": 8911,
      "formează": 8912,
      "##ierele": 8913,
      "Bre": 8914,
      "publici": 8915,
      "regulile": 8916,
      "nim": 8917,
      "mâini": 8918,
      "PRE": 8919,
      "proprietatea": 8920,
      "##gasm": 8921,
      "Fol": 8922,
      "##gog": 8923,
      "stii": 8924,
      "beneficii": 8925,
      "trupe": 8926,
      "piesa": 8927,
      "puțini": 8928,
      "##indă": 8929,
      "Pur": 8930,
      "abreve": 8931,
      "cert": 8932,
      "brân": 8933,
      "părintele": 8934,
      "negli": 8935,
      "minut": 8936,
      "linii": 8937,
      "##ctii": 8938,
      "##alizează": 8939,
      "##pres": 8940,
      "Bucov": 8941,
      "Rezultate": 8942,
      "lupte": 8943,
      "satului": 8944,
      "##zării": 8945,
      "lipsă": 8946,
      "bătut": 8947,
      "intal": 8948,
      "rusă": 8949,
      "actele": 8950,
      "ico": 8951,
      "##sire": 8952,
      "împă": 8953,
      "compro": 8954,
      "adună": 8955,
      "revol": 8956,
      "Cit": 8957,
      "72": 8958,
      "filmului": 8959,
      "##ocă": 8960,
      "My": 8961,
      "tehnologii": 8962,
      "omolog": 8963,
      "Ir": 8964,
      "cuplu": 8965,
      "alegerilor": 8966,
      "##king": 8967,
      "Societatea": 8968,
      "Docu": 8969,
      "autom": 8970,
      "Ru": 8971,
      "concert": 8972,
      "plu": 8973,
      "planurile": 8974,
      "participe": 8975,
      "roz": 8976,
      "lucreze": 8977,
      "##ionat": 8978,
      "uităm": 8979,
      "neregul": 8980,
      "economiei": 8981,
      "poliția": 8982,
      "##ness": 8983,
      "Publice": 8984,
      "Domniș": 8985,
      "Acasă": 8986,
      "Uniune": 8987,
      "chimice": 8988,
      "gel": 8989,
      "multiple": 8990,
      "urb": 8991,
      "politicii": 8992,
      "impresia": 8993,
      "naturii": 8994,
      "##wit": 8995,
      "hard": 8996,
      "##sbi": 8997,
      "##hy": 8998,
      "pregătirea": 8999,
      "Aure": 9000,
      "paragra": 9001,
      "##sal": 9002,
      "animalelor": 9003,
      "rezolva": 9004,
      "##inea": 9005,
      "ambala": 9006,
      "Matrimoniale": 9007,
      "##fu": 9008,
      "ciocol": 9009,
      "##ienți": 9010,
      "##mm": 9011,
      "Han": 9012,
      "premiul": 9013,
      "cît": 9014,
      "mira": 9015,
      "eventual": 9016,
      "fundamentale": 9017,
      "încrederea": 9018,
      "Mac": 9019,
      "##soft": 9020,
      "victorie": 9021,
      "cura": 9022,
      "accesibil": 9023,
      "participanți": 9024,
      "Externe": 9025,
      "mențin": 9026,
      "bucurat": 9027,
      "evidență": 9028,
      "metod": 9029,
      "desene": 9030,
      "aranj": 9031,
      "firmă": 9032,
      "crească": 9033,
      "National": 9034,
      "68": 9035,
      "paroh": 9036,
      "##kin": 9037,
      "96": 9038,
      "parc": 9039,
      "modalitate": 9040,
      "dragi": 9041,
      "Simona": 9042,
      "militară": 9043,
      "##rar": 9044,
      "veget": 9045,
      "plajă": 9046,
      "tradițional": 9047,
      "păc": 9048,
      "filosof": 9049,
      "graf": 9050,
      "întin": 9051,
      "184": 9052,
      "62": 9053,
      "legit": 9054,
      "Tub": 9055,
      "pași": 9056,
      "deta": 9057,
      "iarna": 9058,
      "77": 9059,
      "citat": 9060,
      "tehnologia": 9061,
      "cerea": 9062,
      "tole": 9063,
      "urcat": 9064,
      "avocat": 9065,
      "mass": 9066,
      "metabol": 9067,
      "strâns": 9068,
      "Wal": 9069,
      "Informații": 9070,
      "pozitive": 9071,
      "76": 9072,
      "Păsărică": 9073,
      "pap": 9074,
      "##hone": 9075,
      "dan": 9076,
      "tratat": 9077,
      "regele": 9078,
      "Obiective": 9079,
      "recol": 9080,
      "lipsit": 9081,
      "critic": 9082,
      "supre": 9083,
      "însărcin": 9084,
      "Autoritatea": 9085,
      "##hel": 9086,
      "Cultural": 9087,
      "HD": 9088,
      "patron": 9089,
      "greșel": 9090,
      "responsabilitatea": 9091,
      "##seamna": 9092,
      "##cher": 9093,
      "formată": 9094,
      "Tratatul": 9095,
      "crescu": 9096,
      "Leg": 9097,
      "înființarea": 9098,
      "##rine": 9099,
      "votul": 9100,
      "normală": 9101,
      "superioare": 9102,
      "##tarii": 9103,
      "ansamblu": 9104,
      "câștigă": 9105,
      "Tar": 9106,
      "sfânt": 9107,
      "transforma": 9108,
      "Berlin": 9109,
      "procedurii": 9110,
      "Memb": 9111,
      "##stii": 9112,
      "rezervă": 9113,
      "occident": 9114,
      "Serviciului": 9115,
      "sonda": 9116,
      "Ordinul": 9117,
      "motivele": 9118,
      "secrete": 9119,
      "cantitatea": 9120,
      "problemelor": 9121,
      "Aveți": 9122,
      "##mie": 9123,
      "înalte": 9124,
      "stadi": 9125,
      "deco": 9126,
      "Americ": 9127,
      "zero": 9128,
      "primească": 9129,
      "convers": 9130,
      "proteja": 9131,
      "fur": 9132,
      "##ocamdată": 9133,
      "Ian": 9134,
      "regimului": 9135,
      "fiecărei": 9136,
      "rugăciune": 9137,
      "##MP": 9138,
      "##nei": 9139,
      "Grigore": 9140,
      "deținut": 9141,
      "cărții": 9142,
      "fericită": 9143,
      "calculator": 9144,
      "organismului": 9145,
      "specii": 9146,
      "ușuri": 9147,
      "##ovă": 9148,
      "negre": 9149,
      "##șor": 9150,
      "licență": 9151,
      "##gas": 9152,
      "##omă": 9153,
      "mont": 9154,
      "gl": 9155,
      "##ologiei": 9156,
      "pt": 9157,
      "securitatea": 9158,
      "îndo": 9159,
      "prep": 9160,
      "șoc": 9161,
      "armata": 9162,
      "sinuci": 9163,
      "intru": 9164,
      "##tite": 9165,
      "##hia": 9166,
      "##ofol": 9167,
      "inu": 9168,
      "auz": 9169,
      "##unedo": 9170,
      "Mus": 9171,
      "videoclipuri": 9172,
      "practice": 9173,
      "identi": 9174,
      "Mont": 9175,
      "click": 9176,
      "Ovidiu": 9177,
      "tabel": 9178,
      "pauză": 9179,
      "han": 9180,
      "neo": 9181,
      "zici": 9182,
      "##dian": 9183,
      "Biroul": 9184,
      "răs": 9185,
      "##acții": 9186,
      "efectua": 9187,
      "bacte": 9188,
      "aprecia": 9189,
      "Tex": 9190,
      "cetățean": 9191,
      "Consul": 9192,
      "##ors": 9193,
      "zonei": 9194,
      "puterii": 9195,
      "##oastra": 9196,
      "fundul": 9197,
      "înțelep": 9198,
      "dovezi": 9199,
      "Servicii": 9200,
      "interesați": 9201,
      "Sexy": 9202,
      "Pan": 9203,
      "inițiative": 9204,
      "##our": 9205,
      "cererii": 9206,
      "remarcat": 9207,
      "premierul": 9208,
      "spirituală": 9209,
      "practici": 9210,
      "stabilită": 9211,
      "Iniți": 9212,
      "părerea": 9213,
      "Dori": 9214,
      "pon": 9215,
      "talent": 9216,
      "pretin": 9217,
      "țe": 9218,
      "americani": 9219,
      "Web": 9220,
      "Târg": 9221,
      "##ituri": 9222,
      "nec": 9223,
      "pensiuni": 9224,
      "scăpat": 9225,
      "Fondul": 9226,
      "îndel": 9227,
      "slăb": 9228,
      "utilizator": 9229,
      "schimbul": 9230,
      "condusă": 9231,
      "furnizate": 9232,
      "speranța": 9233,
      "continue": 9234,
      "##opol": 9235,
      "star": 9236,
      "distribui": 9237,
      "proceduri": 9238,
      "Deputaților": 9239,
      "Xxx": 9240,
      "reve": 9241,
      "Buda": 9242,
      "##orial": 9243,
      "##gel": 9244,
      "versiunea": 9245,
      "prilej": 9246,
      "eliberat": 9247,
      "căldură": 9248,
      "dorești": 9249,
      "acid": 9250,
      "aspi": 9251,
      "website": 9252,
      "determină": 9253,
      "doam": 9254,
      "##oarei": 9255,
      "gânduri": 9256,
      "arestat": 9257,
      "Dol": 9258,
      "raza": 9259,
      "amăn": 9260,
      "gama": 9261,
      "##onim": 9262,
      "scorul": 9263,
      "utilizării": 9264,
      "părut": 9265,
      "Schim": 9266,
      "temă": 9267,
      "dina": 9268,
      "amuza": 9269,
      "##pun": 9270,
      "vulnera": 9271,
      "##zări": 9272,
      "asisten": 9273,
      "dedicată": 9274,
[...]
